{
  "version": "1.0",
  "truncation": null,
  "padding": null,
  "added_tokens": [
    {
      "id": 0,
      "content": "[PAD]",
      "single_word": false,
      "lstrip": false,
      "rstrip": false,
      "normalized": false,
      "special": true
    },
    {
      "id": 1,
      "content": "[CLS]",
      "single_word": false,
      "lstrip": false,
      "rstrip": false,
      "normalized": false,
      "special": true
    },
    {
      "id": 2,
      "content": "[SEP]",
      "single_word": false,
      "lstrip": false,
      "rstrip": false,
      "normalized": false,
      "special": true
    },
    {
      "id": 3,
      "content": "[MASK]",
      "single_word": false,
      "lstrip": false,
      "rstrip": false,
      "normalized": false,
      "special": true
    },
    {
      "id": 4,
      "content": "[UNK]",
      "single_word": false,
      "lstrip": false,
      "rstrip": false,
      "normalized": false,
      "special": true
    }
  ],
  "normalizer": null,
  "pre_tokenizer": {
    "type": "Whitespace"
  },
  "post_processor": null,
  "decoder": null,
  "model": {
    "type": "WordPiece",
    "unk_token": "[UNK]",
    "continuing_subword_prefix": "##",
    "max_input_chars_per_word": 100,
    "vocab": {
      "[PAD]": 0,
      "[CLS]": 1,
      "[SEP]": 2,
      "[MASK]": 3,
      "[UNK]": 4,
      "!": 5,
      "\"": 6,
      "%": 7,
      "'": 8,
      "(": 9,
      ")": 10,
      "+": 11,
      ",": 12,
      "-": 13,
      ".": 14,
      "/": 15,
      "0": 16,
      "1": 17,
      "2": 18,
      "3": 19,
      "4": 20,
      "5": 21,
      "6": 22,
      "7": 23,
      "8": 24,
      "9": 25,
      ";": 26,
      "?": 27,
      "A": 28,
      "B": 29,
      "C": 30,
      "D": 31,
      "E": 32,
      "F": 33,
      "G": 34,
      "H": 35,
      "I": 36,
      "J": 37,
      "L": 38,
      "M": 39,
      "N": 40,
      "O": 41,
      "P": 42,
      "R": 43,
      "S": 44,
      "T": 45,
      "V": 46,
      "W": 47,
      "Z": 48,
      "[": 49,
      "_": 50,
      "a": 51,
      "b": 52,
      "c": 53,
      "e": 54,
      "g": 55,
      "i": 56,
      "k": 57,
      "l": 58,
      "m": 59,
      "o": 60,
      "p": 61,
      "r": 62,
      "s": 63,
      "v": 64,
      "|": 65,
      "«": 66,
      "¹": 67,
      "»": 68,
      "ሀ": 69,
      "ሁ": 70,
      "ሂ": 71,
      "ሃ": 72,
      "ሄ": 73,
      "ህ": 74,
      "ሆ": 75,
      "ለ": 76,
      "ሉ": 77,
      "ሊ": 78,
      "ላ": 79,
      "ሌ": 80,
      "ል": 81,
      "ሎ": 82,
      "ሏ": 83,
      "ሐ": 84,
      "ሑ": 85,
      "ሒ": 86,
      "ሓ": 87,
      "ሔ": 88,
      "ሕ": 89,
      "መ": 90,
      "ሙ": 91,
      "ሚ": 92,
      "ማ": 93,
      "ሜ": 94,
      "ም": 95,
      "ሞ": 96,
      "ሟ": 97,
      "ሠ": 98,
      "ሣ": 99,
      "ሥ": 100,
      "ሦ": 101,
      "ረ": 102,
      "ሩ": 103,
      "ሪ": 104,
      "ራ": 105,
      "ሬ": 106,
      "ር": 107,
      "ሮ": 108,
      "ሯ": 109,
      "ሰ": 110,
      "ሱ": 111,
      "ሲ": 112,
      "ሳ": 113,
      "ሴ": 114,
      "ስ": 115,
      "ሶ": 116,
      "ሷ": 117,
      "ሸ": 118,
      "ሹ": 119,
      "ሺ": 120,
      "ሻ": 121,
      "ሼ": 122,
      "ሽ": 123,
      "ሾ": 124,
      "ሿ": 125,
      "ቀ": 126,
      "ቁ": 127,
      "ቂ": 128,
      "ቃ": 129,
      "ቄ": 130,
      "ቅ": 131,
      "ቆ": 132,
      "ቋ": 133,
      "ቐ": 134,
      "በ": 135,
      "ቡ": 136,
      "ቢ": 137,
      "ባ": 138,
      "ቤ": 139,
      "ብ": 140,
      "ቦ": 141,
      "ቧ": 142,
      "ቨ": 143,
      "ቪ": 144,
      "ቫ": 145,
      "ቬ": 146,
      "ቭ": 147,
      "ቮ": 148,
      "ቯ": 149,
      "ተ": 150,
      "ቱ": 151,
      "ቲ": 152,
      "ታ": 153,
      "ቴ": 154,
      "ት": 155,
      "ቶ": 156,
      "ቷ": 157,
      "ቸ": 158,
      "ቹ": 159,
      "ቺ": 160,
      "ቻ": 161,
      "ቼ": 162,
      "ች": 163,
      "ቾ": 164,
      "ቿ": 165,
      "ኃ": 166,
      "ኄ": 167,
      "ኅ": 168,
      "ኋ": 169,
      "ነ": 170,
      "ኑ": 171,
      "ኒ": 172,
      "ና": 173,
      "ኔ": 174,
      "ን": 175,
      "ኖ": 176,
      "ኗ": 177,
      "ኘ": 178,
      "ኙ": 179,
      "ኚ": 180,
      "ኛ": 181,
      "ኜ": 182,
      "ኝ": 183,
      "ኞ": 184,
      "አ": 185,
      "ኡ": 186,
      "ኢ": 187,
      "ኣ": 188,
      "ኤ": 189,
      "እ": 190,
      "ኦ": 191,
      "ከ": 192,
      "ኩ": 193,
      "ኪ": 194,
      "ካ": 195,
      "ኬ": 196,
      "ክ": 197,
      "ኮ": 198,
      "ኳ": 199,
      "ኸ": 200,
      "ወ": 201,
      "ዉ": 202,
      "ዊ": 203,
      "ዋ": 204,
      "ዌ": 205,
      "ው": 206,
      "ዎ": 207,
      "ዐ": 208,
      "ዑ": 209,
      "ዒ": 210,
      "ዓ": 211,
      "ዔ": 212,
      "ዕ": 213,
      "ዖ": 214,
      "ዘ": 215,
      "ዙ": 216,
      "ዚ": 217,
      "ዛ": 218,
      "ዜ": 219,
      "ዝ": 220,
      "ዞ": 221,
      "ዟ": 222,
      "ዠ": 223,
      "ዡ": 224,
      "ዢ": 225,
      "ዣ": 226,
      "ዤ": 227,
      "ዥ": 228,
      "የ": 229,
      "ዩ": 230,
      "ዪ": 231,
      "ያ": 232,
      "ዬ": 233,
      "ይ": 234,
      "ዮ": 235,
      "ደ": 236,
      "ዱ": 237,
      "ዲ": 238,
      "ዳ": 239,
      "ዴ": 240,
      "ድ": 241,
      "ዶ": 242,
      "ዷ": 243,
      "ጀ": 244,
      "ጁ": 245,
      "ጂ": 246,
      "ጃ": 247,
      "ጄ": 248,
      "ጅ": 249,
      "ጆ": 250,
      "ጇ": 251,
      "ገ": 252,
      "ጉ": 253,
      "ጊ": 254,
      "ጋ": 255,
      "ጌ": 256,
      "ግ": 257,
      "ጎ": 258,
      "ጓ": 259,
      "ጠ": 260,
      "ጡ": 261,
      "ጢ": 262,
      "ጣ": 263,
      "ጤ": 264,
      "ጥ": 265,
      "ጦ": 266,
      "ጧ": 267,
      "ጨ": 268,
      "ጩ": 269,
      "ጪ": 270,
      "ጫ": 271,
      "ጭ": 272,
      "ጮ": 273,
      "ጲ": 274,
      "ጳ": 275,
      "ጴ": 276,
      "ጵ": 277,
      "ጸ": 278,
      "ጹ": 279,
      "ጻ": 280,
      "ጽ": 281,
      "ጾ": 282,
      "ጿ": 283,
      "ፀ": 284,
      "ፁ": 285,
      "ፂ": 286,
      "ፃ": 287,
      "ፅ": 288,
      "ፆ": 289,
      "ፈ": 290,
      "ፉ": 291,
      "ፊ": 292,
      "ፋ": 293,
      "ፌ": 294,
      "ፍ": 295,
      "ፎ": 296,
      "ፏ": 297,
      "ፐ": 298,
      "ፑ": 299,
      "ፒ": 300,
      "ፓ": 301,
      "ፔ": 302,
      "ፕ": 303,
      "ፖ": 304,
      "፡": 305,
      "።": 306,
      "፣": 307,
      "፤": 308,
      "፥": 309,
      "፦": 310,
      "–": 311,
      "—": 312,
      "‘": 313,
      "’": 314,
      "“": 315,
      "”": 316,
      "‹": 317,
      "›": 318,
      "##ሚ": 319,
      "##ው": 320,
      "##ል": 321,
      "##ሬ": 322,
      "##ሳ": 323,
      "##ካ": 324,
      "##ም": 325,
      "##ፕ": 326,
      "##ሰ": 327,
      "##ፈ": 328,
      "##ራ": 329,
      "##ጽ": 330,
      "##ሄ": 331,
      "##ት": 332,
      "##ን": 333,
      "##ዳ": 334,
      "##ይ": 335,
      "##ገ": 336,
      "##ቡ": 337,
      "##አ": 338,
      "##ለ": 339,
      "##ማ": 340,
      "##ች": 341,
      "##ር": 342,
      "##ቭ": 343,
      "##ላ": 344,
      "##ጎ": 345,
      "##ቱ": 346,
      "##ስ": 347,
      "##ዴ": 348,
      "##ሊ": 349,
      "##ዝ": 350,
      "##ጀ": 351,
      "##ሮ": 352,
      "##ዎ": 353,
      "##ቀ": 354,
      "##ረ": 355,
      "##በ": 356,
      "##መ": 357,
      "##ግ": 358,
      "##ታ": 359,
      "##ቸ": 360,
      "##ፓ": 361,
      "##ቧ": 362,
      "##ደ": 363,
      "##ዘ": 364,
      "##ዋ": 365,
      "##ወ": 366,
      "##ጠ": 367,
      "##ሙ": 368,
      "##ጢ": 369,
      "##ቶ": 370,
      "##ብ": 371,
      "##ቃ": 372,
      "##ዱ": 373,
      "##ጣ": 374,
      "##ዙ": 375,
      "##ጨ": 376,
      "##ኝ": 377,
      "##C": 378,
      "##I": 379,
      "##T": 380,
      "##ተ": 381,
      "##ና": 382,
      "##ሉ": 383,
      "##ሻ": 384,
      "##ዊ": 385,
      "##ሜ": 386,
      "##ጥ": 387,
      "##ቅ": 388,
      "##ቋ": 389,
      "##ሲ": 390,
      "##ዬ": 391,
      "##k": 392,
      "##ያ": 393,
      "##ጋ": 394,
      "##ጫ": 395,
      "##ነ": 396,
      "##ባ": 397,
      "##ቫ": 398,
      "##ድ": 399,
      "##ኩ": 400,
      "##ኬ": 401,
      "##ከ": 402,
      "##ሪ": 403,
      "##ቷ": 404,
      "##ኤ": 405,
      "##ቪ": 406,
      "##ኖ": 407,
      "##ሩ": 408,
      "##ዶ": 409,
      "##ቹ": 410,
      "##ቁ": 411,
      "##ክ": 412,
      "##ሞ": 413,
      "##ፍ": 414,
      "##ኞ": 415,
      "##ቻ": 416,
      "##ዲ": 417,
      "##ኛ": 418,
      "##ዚ": 419,
      "##ዮ": 420,
      "##ሎ": 421,
      "##ጂ": 422,
      "##ዥ": 423,
      "##0": 424,
      "##ኮ": 425,
      "##ሂ": 426,
      "##እ": 427,
      "##ቨ": 428,
      "##1": 429,
      "##ሌ": 430,
      "##ቢ": 431,
      "##ሃ": 432,
      "##ኒ": 433,
      "##ቦ": 434,
      "##ህ": 435,
      "##ጻ": 436,
      "##ፉ": 437,
      "##ፒ": 438,
      "##ኘ": 439,
      "##ኪ": 440,
      "##ዕ": 441,
      "##ኢ": 442,
      "##የ": 443,
      "##ሱ": 444,
      "##ጆ": 445,
      "##ቆ": 446,
      "##ጦ": 447,
      "##ፌ": 448,
      "##ሽ": 449,
      "##ጅ": 450,
      "##ሥ": 451,
      "##ቼ": 452,
      "##ቲ": 453,
      "##ኔ": 454,
      "##ሴ": 455,
      "##ሆ": 456,
      "##ሁ": 457,
      "##ኑ": 458,
      "##ፏ": 459,
      "##ጵ": 460,
      "##ቺ": 461,
      "##ቴ": 462,
      "##ፋ": 463,
      "##5": 464,
      "##ጃ": 465,
      "##ዛ": 466,
      "##ኃ": 467,
      "##ፊ": 468,
      "##ፖ": 469,
      "##ሟ": 470,
      "##ዩ": 471,
      "##ጉ": 472,
      "##ሠ": 473,
      "##ጸ": 474,
      "##ሯ": 475,
      "##ሺ": 476,
      "##ኅ": 477,
      "##ቮ": 478,
      "##ጭ": 479,
      "##2": 480,
      "##ፃ": 481,
      "##ቤ": 482,
      "##ሸ": 483,
      "##4": 484,
      "##ኙ": 485,
      "##ፅ": 486,
      "##ፀ": 487,
      "##ሔ": 488,
      "##ጡ": 489,
      "##ዜ": 490,
      "##3": 491,
      "##ቿ": 492,
      "##ሏ": 493,
      "##ጪ": 494,
      "##”": 495,
      "##ፆ": 496,
      "##ጊ": 497,
      "##ጾ": 498,
      "##ፐ": 499,
      "##ቂ": 500,
      "##ሶ": 501,
      "##ፎ": 502,
      "##ዌ": 503,
      "##ጮ": 504,
      "##9": 505,
      "##ቄ": 506,
      "##ኦ": 507,
      "##ሦ": 508,
      "##ጧ": 509,
      "##ቾ": 510,
      "##ዓ": 511,
      "##ጤ": 512,
      "##ሐ": 513,
      "##ኚ": 514,
      "##7": 515,
      "##ጄ": 516,
      "##ዞ": 517,
      "##6": 518,
      "##ዉ": 519,
      "##8": 520,
      "##ሓ": 521,
      "##ኳ": 522,
      "##ጁ": 523,
      "##ሀ": 524,
      "##ጓ": 525,
      "##ዢ": 526,
      "##ኗ": 527,
      "##ሷ": 528,
      "##ጇ": 529,
      "##ጩ": 530,
      "##ቬ": 531,
      "##H": 532,
      "##O": 533,
      "##ፔ": 534,
      "##ሕ": 535,
      "##ጲ": 536,
      "##ኡ": 537,
      "##ዒ": 538,
      "##ጿ": 539,
      "##ፑ": 540,
      "##ፁ": 541,
      "##ዪ": 542,
      "##i": 543,
      "##r": 544,
      "##a": 545,
      "##ጌ": 546,
      "##ፂ": 547,
      "##ሣ": 548,
      "##N": 549,
      "##ጹ": 550,
      "##P": 551,
      "##G": 552,
      "##ዟ": 553,
      "##ሹ": 554,
      "##ሼ": 555,
      "##o": 556,
      "##l": 557,
      "##v": 558,
      "##e": 559,
      "##ሒ": 560,
      "##ዷ": 561,
      "##M": 562,
      "##ኸ": 563,
      "##E": 564,
      "##ሾ": 565,
      "##ኋ": 566,
      "##ዑ": 567,
      "##A": 568,
      "##V": 569,
      "##ዖ": 570,
      "##B": 571,
      "##\"": 572,
      "##፣": 573,
      "##’": 574,
      "##R": 575,
      "##›": 576,
      "##'": 577,
      "##ኜ": 578,
      "##‹": 579,
      "##S": 580,
      "##Z": 581,
      "##።": 582,
      "##ሑ": 583,
      "##D": 584,
      "##g": 585,
      "##b": 586,
      "##s": 587,
      "##ዔ": 588,
      "##ጳ": 589,
      "##ኄ": 590,
      "##ዣ": 591,
      "##ዡ": 592,
      "##ዤ": 593,
      "##)": 594,
      "##m": 595,
      "##F": 596,
      "##»": 597,
      "##ቐ": 598,
      "##ዠ": 599,
      "##ቯ": 600,
      "##ሿ": 601,
      "##J": 602,
      "##_": 603,
      "##ዐ": 604,
      "##ኣ": 605,
      "##p": 606,
      "እን": 607,
      "እና": 608,
      "##ዎች": 609,
      "ላይ": 610,
      "የሚ": 611,
      "##ውን": 612,
      "የተ": 613,
      "##ስት": 614,
      "የአ": 615,
      "##ትዮ": 616,
      "##ዋል": 617,
      "##ጵያ": 618,
      "##ትዮጵያ": 619,
      "አስ": 620,
      "በመ": 621,
      "እንደ": 622,
      "በአ": 623,
      "##ነት": 624,
      "##ሪያ": 625,
      "##ንግ": 626,
      "##ቶች": 627,
      "በተ": 628,
      "የመ": 629,
      "##ስጥ": 630,
      "##ደረ": 631,
      "##ንድ": 632,
      "##ቸው": 633,
      "ውስጥ": 634,
      "##ሪካ": 635,
      "##ኢትዮጵያ": 636,
      "እንዲ": 637,
      "ለመ": 638,
      "ለማ": 639,
      "ነው": 640,
      "##ንት": 641,
      "ወደ": 642,
      "ባለ": 643,
      "##ትን": 644,
      "##ተኛ": 645,
      "##ለም": 646,
      "##ችን": 647,
      "##ዎችን": 648,
      "##ላይ": 649,
      "በማ": 650,
      "##በር": 651,
      "ከተ": 652,
      "##ለት": 653,
      "በሚ": 654,
      "##ደር": 655,
      "##ዲስ": 656,
      "ሚኒ": 657,
      "##ጀመ": 658,
      "ጋር": 659,
      "##ንያ": 660,
      "##ረት": 661,
      "##ለው": 662,
      "##ሆነ": 663,
      "ምክ": 664,
      "የኢትዮጵያ": 665,
      "##ራት": 666,
      "##ደረገ": 667,
      "##ድር": 668,
      "##00": 669,
      "##ንስ": 670,
      "##ሜሪካ": 671,
      "##በት": 672,
      "##ተር": 673,
      "##ሆን": 674,
      "ምር": 675,
      "ኢትዮጵያ": 676,
      "ጊዜ": 677,
      "##በረ": 678,
      "አካ": 679,
      "##ሆኑ": 680,
      "##ከል": 681,
      "እንደሚ": 682,
      "##ታወ": 683,
      "እንዳ": 684,
      "##ራዊ": 685,
      "##መት": 686,
      "##01": 687,
      "##ለች": 688,
      "##ቸውን": 689,
      "##ገኘ": 690,
      "የማ": 691,
      "##ባቢ": 692,
      "እየ": 693,
      "##ታት": 694,
      "##የር": 695,
      "##ዮን": 696,
      "##ገር": 697,
      "ሰዎች": 698,
      "##ስተ": 699,
      "##ድን": 700,
      "መንግ": 701,
      "##ጀመሪያ": 702,
      "የእ": 703,
      "##ናት": 704,
      "##ሮች": 705,
      "አቀ": 706,
      "##ፍሪካ": 707,
      "##ዚህ": 708,
      "እስ": 709,
      "##ያን": 710,
      "##ሎች": 711,
      "አቅ": 712,
      "##ርት": 713,
      "የሚያ": 714,
      "##ድረ": 715,
      "ጉዳ": 716,
      "ፕሬ": 717,
      "##መራ": 718,
      "##ገድ": 719,
      "##ቱን": 720,
      "ከተማ": 721,
      "##ልጣ": 722,
      "##ሽን": 723,
      "መን": 724,
      "ቤት": 725,
      "አገ": 726,
      "አዲስ": 727,
      "ሚኒስት": 728,
      "##ሁም": 729,
      "##ቶችን": 730,
      "እንዲሁም": 731,
      "##ረጃ": 732,
      "##ፍተኛ": 733,
      "አው": 734,
      "አበ": 735,
      "##ማሪ": 736,
      "ግን": 737,
      "##ሊዮን": 738,
      "##ቢያ": 739,
      "የሆነ": 740,
      "ድር": 741,
      "##ይት": 742,
      "##ብር": 743,
      "ከአ": 744,
      "አበባ": 745,
      "የኢ": 746,
      "ያለ": 747,
      "##ገኙ": 748,
      "##ስራ": 749,
      "##ረስ": 750,
      "##ታል": 751,
      "##ስቴ": 752,
      "ምክንያ": 753,
      "##መረ": 754,
      "##ከላ": 755,
      "##ክስ": 756,
      "አስታወ": 757,
      "##ቡብ": 758,
      "አስተ": 759,
      "ምክንያት": 760,
      "ፕሮ": 761,
      "##ተዋል": 762,
      "መስ": 763,
      "በኢትዮጵያ": 764,
      "የህ": 765,
      "##ንዳ": 766,
      "ክል": 767,
      "የነ": 768,
      "##ይና": 769,
      "##ለዋል": 770,
      "##ጠና": 771,
      "##ጥር": 772,
      "የም": 773,
      "አም": 774,
      "ዋና": 775,
      "##ምሮ": 776,
      "##ሰብ": 777,
      "##በቃ": 778,
      "መካ": 779,
      "ኢን": 780,
      "##ታው": 781,
      "##ኞች": 782,
      "##ጅት": 783,
      "##ኋላ": 784,
      "##ደረጉ": 785,
      "##ርድ": 786,
      "ሚኒስቴ": 787,
      "የው": 788,
      "ጠቅ": 789,
      "##ልግ": 790,
      "##ነሳ": 791,
      "##ቷል": 792,
      "የአሜሪካ": 793,
      "201": 794,
      "በኋላ": 795,
      "አንድ": 796,
      "##ለያ": 797,
      "##መን": 798,
      "##ባት": 799,
      "##ከት": 800,
      "##ጤና": 801,
      "አካባቢ": 802,
      "አደ": 803,
      "##ካሄ": 804,
      "##ራል": 805,
      "##ማት": 806,
      "##ርክ": 807,
      "##ሏል": 808,
      "በሰ": 809,
      "ከፍተኛ": 810,
      "ውድ": 811,
      "የግ": 812,
      "ይህ": 813,
      "##በሩ": 814,
      "##ክት": 815,
      "አቀፍ": 816,
      "ሁለት": 817,
      "ስር": 818,
      "##ይል": 819,
      "##ገሪ": 820,
      "##ላት": 821,
      "##ሊያ": 822,
      "##ግር": 823,
      "##ሎጂ": 824,
      "##ሳይ": 825,
      "የመጀመሪያ": 826,
      "ሲሆን": 827,
      "##ረጋ": 828,
      "ሚኒስትር": 829,
      "በላይ": 830,
      "##ስቲ": 831,
      "##መለ": 832,
      "በም": 833,
      "አል": 834,
      "ሚኒስቴር": 835,
      "ስራ": 836,
      "ያለው": 837,
      "##ሚያ": 838,
      "##ግራ": 839,
      "##ጠን": 840,
      "##ብረ": 841,
      "##ልግሎ": 842,
      "ቀን": 843,
      "##ሳት": 844,
      "##ዳንት": 845,
      "##ርቲ": 846,
      "##ተው": 847,
      "##ከሰ": 848,
      "አስታወቀ": 849,
      "ስም": 850,
      "የስ": 851,
      "##መር": 852,
      "##ፊት": 853,
      "የሰ": 854,
      "የጤና": 855,
      "##ዘጋ": 856,
      "##ባንያ": 857,
      "##ኤል": 858,
      "ዓመ": 859,
      "ደረጃ": 860,
      "##ርፍ": 861,
      "##ዓለም": 862,
      "ጠቅላይ": 863,
      "አይ": 864,
      "መንግስት": 865,
      "መካከል": 866,
      "ያሉ": 867,
      "##ራን": 868,
      "##ታዊ": 869,
      "##ሪዎች": 870,
      "##ክኖ": 871,
      "##ገኘው": 872,
      "##ድረግ": 873,
      "ተገ": 874,
      "አሳ": 875,
      "አን": 876,
      "ክፍ": 877,
      "የወ": 878,
      "##ላር": 879,
      "##ደቡብ": 880,
      "እየተ": 881,
      "##ክኖሎጂ": 882,
      "ወር": 883,
      "##ላንድ": 884,
      "##ክተር": 885,
      "##ህር": 886,
      "ድርጅት": 887,
      "##ገሪቱ": 888,
      "በዚህ": 889,
      "የባ": 890,
      "ጤና": 891,
      "##ምፒ": 892,
      "##ላማ": 893,
      "##ብረት": 894,
      "ሁኔ": 895,
      "አባ": 896,
      "አሸ": 897,
      "አመት": 898,
      "እር": 899,
      "##ደን": 900,
      "##ሜን": 901,
      "##ቋል": 902,
      "##201": 903,
      "##ለያዩ": 904,
      "ማህ": 905,
      "ወረ": 906,
      "##ጠሩ": 907,
      "19": 908,
      "መር": 909,
      "አብ": 910,
      "ኩባንያ": 911,
      "የቀ": 912,
      "##ፈው": 913,
      "##ዳን": 914,
      "##ረን": 915,
      "##ናል": 916,
      "##ሯል": 917,
      "ወቅ": 918,
      "##ቀም": 919,
      "##ረው": 920,
      "##ያዘ": 921,
      "ፕሬዝ": 922,
      "ክልል": 923,
      "ሁኔታ": 924,
      "20": 925,
      "በስ": 926,
      "ተና": 927,
      "አድር": 928,
      "የካ": 929,
      "ዶላር": 930,
      "ጥበቃ": 931,
      "##ላል": 932,
      "##ታቸው": 933,
      "##ደው": 934,
      "##ቦች": 935,
      "አገልግሎ": 936,
      "አደጋ": 937,
      "በእ": 938,
      "ኮሪያ": 939,
      "የገ": 940,
      "##ይወ": 941,
      "##ታን": 942,
      "##ሪክ": 943,
      "የተባ": 944,
      "እንደተ": 945,
      "ፕሬዝዳንት": 946,
      "ሚሊዮን": 947,
      "ማዕ": 948,
      "ቡድን": 949,
      "ተብ": 950,
      "የኮ": 951,
      "##ኖች": 952,
      "በአዲስ": 953,
      "##ደረገው": 954,
      "ፕሬዚ": 955,
      "በሽ": 956,
      "ተወ": 957,
      "አቶ": 958,
      "እያ": 959,
      "እድ": 960,
      "የታ": 961,
      "##ውያን": 962,
      "##ልም": 963,
      "##ንም": 964,
      "##ግባ": 965,
      "##ጠቃ": 966,
      "እንደሚያ": 967,
      "በግ": 968,
      "አለ": 969,
      "አመ": 970,
      "ከመ": 971,
      "የፊ": 972,
      "ለአ": 973,
      "መሰ": 974,
      "ሳም": 975,
      "አፍሪካ": 976,
      "##ሰራ": 977,
      "##ኛው": 978,
      "የሆነው": 979,
      "ያለውን": 980,
      "ስምም": 981,
      "ቦታ": 982,
      "ቫይ": 983,
      "ቴክኖሎጂ": 984,
      "ወን": 985,
      "##ምና": 986,
      "##ጣት": 987,
      "##ቅር": 988,
      "##ድሞ": 989,
      "##ኮኖ": 990,
      "ወቅት": 991,
      "ለሚ": 992,
      "በታ": 993,
      "አየር": 994,
      "ዓመት": 995,
      "ዝግ": 996,
      "የበ": 997,
      "ዳይ": 998,
      "ገል": 999,
      "ገለ": 1000,
      "##ሬት": 1001,
      "##ላቸው": 1002,
      "##ዝብ": 1003,
      "##ዎቹ": 1004,
      "##መድ": 1005,
      "##ባቸው": 1006,
      "##ቻይና": 1007,
      "##ቤት": 1008,
      "መል": 1009,
      "ይገ": 1010,
      "##ቃት": 1011,
      "##ዮች": 1012,
      "##ስትራ": 1013,
      "ውድድር": 1014,
      "ተቃ": 1015,
      "##ሳተ": 1016,
      "##ርሽ": 1017,
      "##ላፊ": 1018,
      "##ቀጥ": 1019,
      "##ታደ": 1020,
      "##ጠር": 1021,
      "##ነስ": 1022,
      "መንገድ": 1023,
      "ሀገ": 1024,
      "ብለዋል": 1025,
      "የብ": 1026,
      "ፖሊ": 1027,
      "##ምር": 1028,
      "##ትስ": 1029,
      "##ንቲ": 1030,
      "##ከተ": 1031,
      "##20": 1032,
      "የአለም": 1033,
      "ዳይሬ": 1034,
      "በፊት": 1035,
      "የዩ": 1036,
      "የሆኑ": 1037,
      "##ይም": 1038,
      "##ገሩ": 1039,
      "##ረሻ": 1040,
      "##ቪድ": 1041,
      "እንዲያ": 1042,
      "እስከ": 1043,
      "መሆኑ": 1044,
      "ብዙ": 1045,
      "ተከት": 1046,
      "ነበር": 1047,
      "ከሚ": 1048,
      "ኳስ": 1049,
      "##ካባቢ": 1050,
      "##ችው": 1051,
      "##ርካ": 1052,
      "##ርያ": 1053,
      "##ናይት": 1054,
      "##ህን": 1055,
      "##ሁን": 1056,
      "በመቶ": 1057,
      "##ልጣን": 1058,
      "ግንኙ": 1059,
      "የነበረ": 1060,
      "ቫይረስ": 1061,
      "000": 1062,
      "ለተ": 1063,
      "በኢ": 1064,
      "አር": 1065,
      "የሶ": 1066,
      "##ትል": 1067,
      "##ገለ": 1068,
      "##ጨማሪ": 1069,
      "##ሻሻ": 1070,
      "##ባል": 1071,
      "##ዛት": 1072,
      "በሚል": 1073,
      "አቅር": 1074,
      "ስምምነት": 1075,
      "ተከትሎ": 1076,
      "የዓለም": 1077,
      "##ማን": 1078,
      "##ላን": 1079,
      "##ሊዝ": 1080,
      "##ደንት": 1081,
      "##ሲያ": 1082,
      "##ኤስ": 1083,
      "##ቨር": 1084,
      "አስታው": 1085,
      "ወረርሽ": 1086,
      "ተናግ": 1087,
      "መሰረት": 1088,
      "##ኮኖሚ": 1089,
      "ሁለ": 1090,
      "ሰዎችን": 1091,
      "ስለ": 1092,
      "ድጋ": 1093,
      "##ካል": 1094,
      "##ምጃ": 1095,
      "##ፈጠ": 1096,
      "##ንጫ": 1097,
      "##ገበ": 1098,
      "##ስፋ": 1099,
      "##ረዋል": 1100,
      "##ዋታ": 1101,
      "##ጠት": 1102,
      "##ሁለት": 1103,
      "አስፈ": 1104,
      "##በሩት": 1105,
      "ዓመታት": 1106,
      "አገልግሎት": 1107,
      "በሽታ": 1108,
      "##ስትራሊያ": 1109,
      "ስቴ": 1110,
      "ባን": 1111,
      "አለም": 1112,
      "ዛሬ": 1113,
      "የሞ": 1114,
      "##ሬሽን": 1115,
      "##ፈር": 1116,
      "##ቀው": 1117,
      "##ጨረሻ": 1118,
      "##ክምና": 1119,
      "##ፖርት": 1120,
      "ምክር": 1121,
      "አቅራ": 1122,
      "##ረጋገ": 1123,
      "ግንኙነት": 1124,
      "ዘርፍ": 1125,
      "የጎ": 1126,
      "የሀ": 1127,
      "ዳር": 1128,
      "ግብ": 1129,
      "ፓርቲ": 1130,
      "##ምን": 1131,
      "##ንሰ": 1132,
      "##ገና": 1133,
      "##ችል": 1134,
      "##ሉት": 1135,
      "##ሎችን": 1136,
      "የአየር": 1137,
      "የአፍሪካ": 1138,
      "ለማድረግ": 1139,
      "ዳይሬክተር": 1140,
      "ለው": 1141,
      "መጠን": 1142,
      "ሳይ": 1143,
      "ሽል": 1144,
      "ቁጥር": 1145,
      "በካ": 1146,
      "ተመራ": 1147,
      "ንግ": 1148,
      "አህ": 1149,
      "አሜሪካ": 1150,
      "ጨምሮ": 1151,
      "##ዳጅ": 1152,
      "##ገኝ": 1153,
      "##ገባ": 1154,
      "##ላዊ": 1155,
      "##ሮፓ": 1156,
      "##ግኘ": 1157,
      "##ቧል": 1158,
      "##ዶች": 1159,
      "##ቆጠሩ": 1160,
      "##ቲካ": 1161,
      "##ዘጋጀ": 1162,
      "መሆኑን": 1163,
      "##ናይትድ": 1164,
      "ሆነ": 1165,
      "ሲል": 1166,
      "ትል": 1167,
      "ኮሚ": 1168,
      "የሙ": 1169,
      "የኤ": 1170,
      "ጀምሮ": 1171,
      "ጨዋታ": 1172,
      "ፍርድ": 1173,
      "##ውሞ": 1174,
      "##ምህ": 1175,
      "##ሄራዊ": 1176,
      "##ንን": 1177,
      "##ዳደር": 1178,
      "##ስቃ": 1179,
      "##ቀት": 1180,
      "##ግብ": 1181,
      "##ጠበ": 1182,
      "##ጠቀም": 1183,
      "##ሲቲ": 1184,
      "##ያያዘ": 1185,
      "##ከለ": 1186,
      "##ቦት": 1187,
      "##የት": 1188,
      "##ቆጣ": 1189,
      "##ፋት": 1190,
      "የአው": 1191,
      "ባለፈው": 1192,
      "የአሜሪካው": 1193,
      "ተብሎ": 1194,
      "ፕሬዚደንት": 1195,
      "ማስ": 1196,
      "በከ": 1197,
      "በዓ": 1198,
      "በሆነ": 1199,
      "ዋንጫ": 1200,
      "ውጤ": 1201,
      "የፖ": 1202,
      "ይጠ": 1203,
      "##ፈል": 1204,
      "##ትሌ": 1205,
      "##ንሲ": 1206,
      "##ገደ": 1207,
      "##ቶን": 1208,
      "##ቅስቃ": 1209,
      "##ሩን": 1210,
      "##ቾች": 1211,
      "መንግስ": 1212,
      "የሚያስ": 1213,
      "ፕሮጀ": 1214,
      "የቀድሞ": 1215,
      "ሳምንት": 1216,
      "ድጋፍ": 1217,
      "##ቅስቃሴ": 1218,
      "ሁሉ": 1219,
      "ህይወ": 1220,
      "ሆኖ": 1221,
      "ሌሎች": 1222,
      "በቀ": 1223,
      "ያል": 1224,
      "ጥናት": 1225,
      "ጥቃት": 1226,
      "##ምት": 1227,
      "##ስጠት": 1228,
      "##ቀር": 1229,
      "##ረበ": 1230,
      "##ግለ": 1231,
      "##ፓን": 1232,
      "##ወር": 1233,
      "##ናዊ": 1234,
      "##ጥጥር": 1235,
      "##ቅረ": 1236,
      "##ባድ": 1237,
      "##ሁለ": 1238,
      "##ፖር": 1239,
      "የተሰ": 1240,
      "##ንግድ": 1241,
      "##ንግስት": 1242,
      "##ደረሰ": 1243,
      "##ማሪዎች": 1244,
      "##ከላከል": 1245,
      "##ካሄደው": 1246,
      "##ህንነት": 1247,
      "ልማት": 1248,
      "በጣ": 1249,
      "በደቡብ": 1250,
      "ነገር": 1251,
      "ናቸው": 1252,
      "የት": 1253,
      "የፍ": 1254,
      "የቻይና": 1255,
      "##ሚዎች": 1256,
      "##ራተ": 1257,
      "##ታቸውን": 1258,
      "##ዋቂ": 1259,
      "##ብት": 1260,
      "##ጋራ": 1261,
      "##ሞክ": 1262,
      "##ኒያ": 1263,
      "##ሥት": 1264,
      "##ጭት": 1265,
      "በአሜሪካ": 1266,
      "ፕሮግራ": 1267,
      "የውሃ": 1268,
      "ወረርሽኝ": 1269,
      "ሲሉ": 1270,
      "ቢሊዮን": 1271,
      "የቴ": 1272,
      "የኦ": 1273,
      "ያስ": 1274,
      "##ልስ": 1275,
      "##ንዘ": 1276,
      "##ርስ": 1277,
      "##ጀንሲ": 1278,
      "##ሞች": 1279,
      "##ኒው": 1280,
      "##ዓት": 1281,
      "የሚገኙ": 1282,
      "የተለያዩ": 1283,
      "ባለስ": 1284,
      "ምርጫ": 1285,
      "ጉዳይ": 1286,
      "ጉዳዮች": 1287,
      "##ስራቅ": 1288,
      "እርምጃ": 1289,
      "ተናግረዋል": 1290,
      "##ግኘት": 1291,
      "##ግለጫ": 1292,
      "መቀ": 1293,
      "መግለጫ": 1294,
      "ሻምፒ": 1295,
      "በህ": 1296,
      "በሀ": 1297,
      "ቤተ": 1298,
      "ብሔ": 1299,
      "ተመ": 1300,
      "ተጫ": 1301,
      "ንብረት": 1302,
      "የክ": 1303,
      "ጦር": 1304,
      "##ውል": 1305,
      "##ዱስት": 1306,
      "##ከያ": 1307,
      "##ክሲ": 1308,
      "##ፉት": 1309,
      "##ዕራ": 1310,
      "እንቅስቃሴ": 1311,
      "በተያያዘ": 1312,
      "ለመጀመሪያ": 1313,
      "ምርመራ": 1314,
      "ጉዳት": 1315,
      "##ልጣናት": 1316,
      "ይገኛ": 1317,
      "##ምህርት": 1318,
      "ሲያ": 1319,
      "በረ": 1320,
      "በዩ": 1321,
      "ተከ": 1322,
      "የንግድ": 1323,
      "ደግ": 1324,
      "ፓር": 1325,
      "##ውስ": 1326,
      "##ፈረን": 1327,
      "##ራቸው": 1328,
      "##ታይ": 1329,
      "##ያዎች": 1330,
      "##ጓል": 1331,
      "የሚቆጠሩ": 1332,
      "##ነትን": 1333,
      "አካል": 1334,
      "##ስቲቫ": 1335,
      "ሀገራት": 1336,
      "ፖሊስ": 1337,
      "ስቴትስ": 1338,
      "መንግስታት": 1339,
      "##ንዘብ": 1340,
      "መረጃ": 1341,
      "በኩ": 1342,
      "ብሏል": 1343,
      "ኃላፊ": 1344,
      "አራት": 1345,
      "ኤጀንሲ": 1346,
      "ወታደ": 1347,
      "ደቡብ": 1348,
      "ድን": 1349,
      "ግድ": 1350,
      "##ልክ": 1351,
      "##ፈጥ": 1352,
      "##ትር": 1353,
      "##ደግ": 1354,
      "##ናዳ": 1355,
      "##ናብ": 1356,
      "##ባሳ": 1357,
      "##ከር": 1358,
      "##ክሬ": 1359,
      "##ዲያ": 1360,
      "##የም": 1361,
      "##ጦር": 1362,
      "##ሶች": 1363,
      "በአው": 1364,
      "##ንግሊዝ": 1365,
      "ምክትል": 1366,
      "##በቃል": 1367,
      "አስታውቋል": 1368,
      "አቅራቢያ": 1369,
      "በጣም": 1370,
      "ደግሞ": 1371,
      "ለኢ": 1372,
      "መሪ": 1373,
      "ቀናት": 1374,
      "በነ": 1375,
      "በ201": 1376,
      "በቅር": 1377,
      "ተጠ": 1378,
      "አሰ": 1379,
      "አማ": 1380,
      "ወጣ": 1381,
      "ዓለም": 1382,
      "የፌ": 1383,
      "ያላ": 1384,
      "##ሳስ": 1385,
      "##ሳሪያ": 1386,
      "##ዳል": 1387,
      "##ገን": 1388,
      "##ለን": 1389,
      "##ስማ": 1390,
      "##ሊን": 1391,
      "##መቻ": 1392,
      "##ታማ": 1393,
      "##ደገ": 1394,
      "##ዘር": 1395,
      "##ዘገበ": 1396,
      "##ያቄ": 1397,
      "##ጋት": 1398,
      "##ባዊ": 1399,
      "##ቨስት": 1400,
      "##ህል": 1401,
      "##ቲት": 1402,
      "##ሟል": 1403,
      "የሚጠ": 1404,
      "የአካባቢ": 1405,
      "አስተዳደር": 1406,
      "ለውጥ": 1407,
      "ተጫዋ": 1408,
      "ህግ": 1409,
      "በሙ": 1410,
      "በብ": 1411,
      "ተቀ": 1412,
      "ተቋ": 1413,
      "አድ": 1414,
      "ኤም": 1415,
      "እግር": 1416,
      "የፀ": 1417,
      "ዩኒ": 1418,
      "ጥያቄ": 1419,
      "##ልፍ": 1420,
      "##ይታ": 1421,
      "##ሮፕ": 1422,
      "##ረም": 1423,
      "##መንት": 1424,
      "##ደት": 1425,
      "##ወጣ": 1426,
      "##ናገሩ": 1427,
      "##ዊው": 1428,
      "##ባይ": 1429,
      "##ጡት": 1430,
      "##ቂያ": 1431,
      "የተመ": 1432,
      "እንደሆነ": 1433,
      "በተለ": 1434,
      "##ከላከያ": 1435,
      "የመጀመሪያው": 1436,
      "ዳርቻ": 1437,
      "ይጠበቃል": 1438,
      "ፕሮግራም": 1439,
      "##ዱስትሪ": 1440,
      "ህዝ": 1441,
      "ማራ": 1442,
      "ሥራ": 1443,
      "ሰው": 1444,
      "ስብ": 1445,
      "በት": 1446,
      "በየ": 1447,
      "በርካ": 1448,
      "ብሄራዊ": 1449,
      "ተግባ": 1450,
      "እለት": 1451,
      "ከሰ": 1452,
      "ከ1": 1453,
      "ውጭ": 1454,
      "የቱ": 1455,
      "የጠ": 1456,
      "የደቡብ": 1457,
      "ግዛት": 1458,
      "ፌስቲቫ": 1459,
      "##ልን": 1460,
      "##ሰን": 1461,
      "##ፈት": 1462,
      "##ዳት": 1463,
      "##አይ": 1464,
      "##ስፒ": 1465,
      "##ስተኛ": 1466,
      "##ስታን": 1467,
      "##ቀዋል": 1468,
      "##መው": 1469,
      "##ዋን": 1470,
      "##ቅድ": 1471,
      "##ከራ": 1472,
      "##ፍት": 1473,
      "##ፎር": 1474,
      "ለመስጠት": 1475,
      "ለማስ": 1476,
      "ባለሥ": 1477,
      "ኢትዮጵያውያን": 1478,
      "##ንዳንድ": 1479,
      "አምስት": 1480,
      "ይህም": 1481,
      "የባህር": 1482,
      "አብይ": 1483,
      "ተቃውሞ": 1484,
      "የሆኑት": 1485,
      "##ቨርሲቲ": 1486,
      "ሁለተኛ": 1487,
      "ባንክ": 1488,
      "አህመድ": 1489,
      "##ናገሩት": 1490,
      "ሀገር": 1491,
      "ህብረት": 1492,
      "በባ": 1493,
      "በኤ": 1494,
      "ኃይ": 1495,
      "አትሌ": 1496,
      "ወራት": 1497,
      "ውይ": 1498,
      "የል": 1499,
      "የ201": 1500,
      "##ይን": 1501,
      "##ገዋል": 1502,
      "##ለጠ": 1503,
      "##ለቲካ": 1504,
      "##ላለ": 1505,
      "##ላክ": 1506,
      "##ጀል": 1507,
      "##ብኝ": 1508,
      "##ቅና": 1509,
      "##ቋቋ": 1510,
      "##ድስት": 1511,
      "##ዲሱ": 1512,
      "##ዚቃ": 1513,
      "##ቲክ": 1514,
      "##ሆና": 1515,
      "##ዜአ": 1516,
      "የተነሳ": 1517,
      "በአፍሪካ": 1518,
      "ምርት": 1519,
      "##ስተዋ": 1520,
      "አውሮፕ": 1521,
      "የተባለ": 1522,
      "እንደተናገሩት": 1523,
      "ተመራማሪዎች": 1524,
      "ሃይል": 1525,
      "ሊግ": 1526,
      "ልዩ": 1527,
      "መድ": 1528,
      "መሳሪያ": 1529,
      "ሙሉ": 1530,
      "ሴቶች": 1531,
      "ቃል": 1532,
      "በጥ": 1533,
      "በኮ": 1534,
      "ታሪክ": 1535,
      "ታዋቂ": 1536,
      "አዳ": 1537,
      "አግ": 1538,
      "ገብ": 1539,
      "ጋዜ": 1540,
      "ጥረት": 1541,
      "##ሰባ": 1542,
      "##ችሉ": 1543,
      "##ላም": 1544,
      "##ዝም": 1545,
      "##ሮችን": 1546,
      "##መዋል": 1547,
      "##ሌክት": 1548,
      "##ቲክስ": 1549,
      "##ፊያ": 1550,
      "የተከሰ": 1551,
      "እንዳይ": 1552,
      "መንግሥት": 1553,
      "አስታወቁ": 1554,
      "##ጠናቀ": 1555,
      "አምባሳ": 1556,
      "አካባቢዎች": 1557,
      "ውድድ": 1558,
      "ክፍል": 1559,
      "አባላት": 1560,
      "የገንዘብ": 1561,
      "##ሞክራ": 1562,
      "በርካታ": 1563,
      "ፌስቲቫል": 1564,
      "15": 1565,
      "ሃይ": 1566,
      "መድረ": 1567,
      "ሥር": 1568,
      "ሰር": 1569,
      "ሶስት": 1570,
      "በሳ": 1571,
      "በድ": 1572,
      "በ1": 1573,
      "በኦ": 1574,
      "ባህር": 1575,
      "ተዋ": 1576,
      "አርቲ": 1577,
      "አጠቃ": 1578,
      "ኢኮኖሚ": 1579,
      "ከዚህ": 1580,
      "ከባድ": 1581,
      "ካር": 1582,
      "ወይም": 1583,
      "ዝናብ": 1584,
      "የጥ": 1585,
      "የጦር": 1586,
      "ያደር": 1587,
      "ደን": 1588,
      "ጉባ": 1589,
      "##ሰጥ": 1590,
      "##ሰቦች": 1591,
      "##ፈረ": 1592,
      "##ራክ": 1593,
      "##ዳታ": 1594,
      "##ጀር": 1595,
      "##ሮሚያ": 1596,
      "##በያ": 1597,
      "##በዋል": 1598,
      "##ጠረ": 1599,
      "##ከብ": 1600,
      "##ኤፍ": 1601,
      "##ክል": 1602,
      "##ሌት": 1603,
      "##ኪያ": 1604,
      "በተጨማሪ": 1605,
      "##ደረግ": 1606,
      "ለማሳ": 1607,
      "##ደርጉ": 1608,
      "##ጀመር": 1609,
      "ሚኒስትሩ": 1610,
      "ዝግጅ": 1611,
      "ሽልማት": 1612,
      "ፕሮጀክት": 1613,
      "በሀገሪቱ": 1614,
      "##ዕራብ": 1615,
      "ሆስፒ": 1616,
      "በበ": 1617,
      "በሞ": 1618,
      "ቻይና": 1619,
      "አክ": 1620,
      "ከነ": 1621,
      "ክስ": 1622,
      "ኮንግ": 1623,
      "ዋጋ": 1624,
      "ውሃ": 1625,
      "የሩ": 1626,
      "ያሳ": 1627,
      "ይች": 1628,
      "ይፋ": 1629,
      "ደር": 1630,
      "ደረ": 1631,
      "ደሴ": 1632,
      "##ምሯል": 1633,
      "##ፈራ": 1634,
      "##ፈን": 1635,
      "##ላጎ": 1636,
      "##ስተር": 1637,
      "##ዴሬሽን": 1638,
      "##መጣ": 1639,
      "##ብፅ": 1640,
      "##ኝተዋል": 1641,
      "##ያዙ": 1642,
      "##ክለ": 1643,
      "##የን": 1644,
      "##ኔት": 1645,
      "##ሺዎች": 1646,
      "በመተ": 1647,
      "በአማ": 1648,
      "በተካሄደው": 1649,
      "ባለሙ": 1650,
      "አካላት": 1651,
      "የኢን": 1652,
      "አስተዋ": 1653,
      "የህዝብ": 1654,
      "##ደረጉት": 1655,
      "የተባበሩት": 1656,
      "ገልጸ": 1657,
      "አቅርቦት": 1658,
      "በከፍተኛ": 1659,
      "በቅርቡ": 1660,
      "ተጫዋች": 1661,
      "ማራቶን": 1662,
      "መጠ": 1663,
      "ማእ": 1664,
      "ተስማ": 1665,
      "ታማ": 1666,
      "ትምህርት": 1667,
      "ችግ": 1668,
      "ኮር": 1669,
      "ደህንነት": 1670,
      "ዶክተር": 1671,
      "ግለ": 1672,
      "##ሚካል": 1673,
      "##ልድ": 1674,
      "##ሳኔ": 1675,
      "##ራይ": 1676,
      "##ይነ": 1677,
      "##ላሽ": 1678,
      "##ላጊ": 1679,
      "##ስር": 1680,
      "##ሊክ": 1681,
      "##ሮን": 1682,
      "##ወሰ": 1683,
      "##ብሪካ": 1684,
      "##ቃድ": 1685,
      "##ኝነት": 1686,
      "##ያዝ": 1687,
      "##ጋል": 1688,
      "##ጋፊ": 1689,
      "##ነሱ": 1690,
      "##ኒት": 1691,
      "##ሁኑ": 1692,
      "##ፏል": 1693,
      "##ፋስ": 1694,
      "##ጃፓን": 1695,
      "##ዷል": 1696,
      "የአይ": 1697,
      "በመሆን": 1698,
      "እንደገለ": 1699,
      "በአንድ": 1700,
      "የመጨረሻ": 1701,
      "ባለፉት": 1702,
      "በሚገኘው": 1703,
      "##ደርስ": 1704,
      "##ንስቲት": 1705,
      "ምርምር": 1706,
      "ኢንቨስት": 1707,
      "ማህበር": 1708,
      "መርሃ": 1709,
      "ማዕከል": 1710,
      "አስፈላጊ": 1711,
      "ንግድ": 1712,
      "የተሰኘ": 1713,
      "##ፈጥሮ": 1714,
      "ለኢዜአ": 1715,
      "ስብሰባ": 1716,
      "ጉባኤ": 1717,
      "ገልጸዋል": 1718,
      "##ንስቲትዩ": 1719,
      "ሆና": 1720,
      "መም": 1721,
      "ማክ": 1722,
      "ማሻሻ": 1723,
      "በራ": 1724,
      "በዓለም": 1725,
      "ብቻ": 1726,
      "ነዋ": 1727,
      "አረ": 1728,
      "ከፍ": 1729,
      "ከኢትዮጵያ": 1730,
      "ኮን": 1731,
      "ውሳኔ": 1732,
      "የሃ": 1733,
      "የሥ": 1734,
      "ደጋፊ": 1735,
      "ድም": 1736,
      "ግጭት": 1737,
      "ፊልም": 1738,
      "ፋብሪካ": 1739,
      "ፍላጎ": 1740,
      "##ሳብ": 1741,
      "##ካት": 1742,
      "##ሰቡ": 1743,
      "##ሰረ": 1744,
      "##ሰሩ": 1745,
      "##ትሮ": 1746,
      "##ዳር": 1747,
      "##ይዘ": 1748,
      "##ገል": 1749,
      "##ገብ": 1750,
      "##ለቀ": 1751,
      "##ጎች": 1752,
      "##ስና": 1753,
      "##ሊፒ": 1754,
      "##ሮና": 1755,
      "##ደም": 1756,
      "##ወቅ": 1757,
      "##ጠው": 1758,
      "##ያዊ": 1759,
      "##ጋቢ": 1760,
      "##ባን": 1761,
      "##ባበር": 1762,
      "##ኖችን": 1763,
      "##ኞችን": 1764,
      "##ዚያ": 1765,
      "##ኮም": 1766,
      "##ጆች": 1767,
      "##ቂዎች": 1768,
      "##ኳን": 1769,
      "##ኗል": 1770,
      "በተለያዩ": 1771,
      "ለመከላከል": 1772,
      "##ደርግ": 1773,
      "እንዳለ": 1774,
      "አገሪ": 1775,
      "##ከላዊ": 1776,
      "በሰሜን": 1777,
      "##ምፒክ": 1778,
      "ማህበ": 1779,
      "ተቃዋ": 1780,
      "የዩናይትድ": 1781,
      "ትልቁ": 1782,
      "ህይወት": 1783,
      "ሻምፒዮ": 1784,
      "በኩል": 1785,
      "ውይይት": 1786,
      "መጨ": 1787,
      "መኖ": 1788,
      "መከላከያ": 1789,
      "ሚሊ": 1790,
      "ምን": 1791,
      "ምንም": 1792,
      "ርዕ": 1793,
      "ስነ": 1794,
      "በወ": 1795,
      "በሺዎች": 1796,
      "ቡድ": 1797,
      "ቢያ": 1798,
      "ባህ": 1799,
      "ብሎ": 1800,
      "ተሸ": 1801,
      "ትኩ": 1802,
      "ኃይል": 1803,
      "አደረገ": 1804,
      "አንዳንድ": 1805,
      "አዲሱ": 1806,
      "ኢንስቲትዩ": 1807,
      "እው": 1808,
      "እጅ": 1809,
      "ከማ": 1810,
      "ውጪ": 1811,
      "የሳ": 1812,
      "የሟ": 1813,
      "ይዘ": 1814,
      "ጉዞ": 1815,
      "ጣቢያ": 1816,
      "ፌዴሬሽን": 1817,
      "##ሰበ": 1818,
      "##ሰጣ": 1819,
      "##ንታ": 1820,
      "##ገቡ": 1821,
      "##አት": 1822,
      "##ማኖ": 1823,
      "##ስን": 1824,
      "##ስቶች": 1825,
      "##ስታወ": 1826,
      "##ዝግ": 1827,
      "##ዝና": 1828,
      "##በትን": 1829,
      "##ደራ": 1830,
      "##ብራ": 1831,
      "##ብቶች": 1832,
      "##ብብር": 1833,
      "##ተኞች": 1834,
      "##ናፊ": 1835,
      "##ጥታ": 1836,
      "##ነፈ": 1837,
      "##ባማ": 1838,
      "##ባር": 1839,
      "##ድሮ": 1840,
      "##ከታ": 1841,
      "##ቁጥጥር": 1842,
      "##ኪና": 1843,
      "##ቆም": 1844,
      "##ጅም": 1845,
      "##ሷል": 1846,
      "እንግ": 1847,
      "የተቀ": 1848,
      "የመጣ": 1849,
      "የመንግስት": 1850,
      "##ጀመረ": 1851,
      "##በረታ": 1852,
      "እንዳሉት": 1853,
      "##ስራኤል": 1854,
      "የህክምና": 1855,
      "የነዳጅ": 1856,
      "የምግብ": 1857,
      "የውጭ": 1858,
      "ስርዓት": 1859,
      "##ግራይ": 1860,
      "##ብረተ": 1861,
      "አንዱ": 1862,
      "አሸናፊ": 1863,
      "2020": 1864,
      "አድርጓል": 1865,
      "አመታት": 1866,
      "##ንሰር": 1867,
      "##ዘጋጀት": 1868,
      "የፖሊ": 1869,
      "##ወርቅ": 1870,
      "##ክሲኮ": 1871,
      "ፓርላማ": 1872,
      "##ክሬን": 1873,
      "ዩኒቨርሲቲ": 1874,
      "አምባሳደር": 1875,
      "ይችላል": 1876,
      "ባለሙያዎች": 1877,
      "##ሊፒንስ": 1878,
      "10": 1879,
      "18": 1880,
      "ለኢትዮጵያ": 1881,
      "ሙከራ": 1882,
      "ማን": 1883,
      "ሪፖርት": 1884,
      "ሱዳን": 1885,
      "ሺህ": 1886,
      "በ2": 1887,
      "በሶ": 1888,
      "ብር": 1889,
      "ተደር": 1890,
      "ተጨማሪ": 1891,
      "ተስፋ": 1892,
      "ታላ": 1893,
      "ትራ": 1894,
      "እገ": 1895,
      "ክት": 1896,
      "ዘግ": 1897,
      "የ1": 1898,
      "የሴ": 1899,
      "የስራ": 1900,
      "የጋራ": 1901,
      "ደቂ": 1902,
      "ድረስ": 1903,
      "ጥቅ": 1904,
      "##ሳሳይ": 1905,
      "##ካይ": 1906,
      "##ካር": 1907,
      "##ምፕ": 1908,
      "##ፕሬ": 1909,
      "##ፕሎ": 1910,
      "##ሰር": 1911,
      "##ዳና": 1912,
      "##ገት": 1913,
      "##ማሽ": 1914,
      "##ላስ": 1915,
      "##ስኮ": 1916,
      "##ረዳ": 1917,
      "##ረቡ": 1918,
      "##በል": 1919,
      "##መቱ": 1920,
      "##ቸዋል": 1921,
      "##ደራል": 1922,
      "##ናወ": 1923,
      "##ጥፍ": 1924,
      "##ከናወ": 1925,
      "##ሪዝም": 1926,
      "##ቹን": 1927,
      "##ክር": 1928,
      "##ሞቱ": 1929,
      "##ፍጠር": 1930,
      "##ዲና": 1931,
      "##ቦላ": 1932,
      "##ኑን": 1933,
      "##ፐብ": 1934,
      "የተቃ": 1935,
      "በአለም": 1936,
      "በተደረገ": 1937,
      "በተፈጠ": 1938,
      "የመሬት": 1939,
      "##ሪካዊ": 1940,
      "##በረሰብ": 1941,
      "##ስተና": 1942,
      "ድርጅ": 1943,
      "202": 1944,
      "ወንጀል": 1945,
      "የነበረው": 1946,
      "የሶሪያ": 1947,
      "ትልቅ": 1948,
      "##ቅረብ": 1949,
      "ብሔራዊ": 1950,
      "ይገኛል": 1951,
      "##ደገፍ": 1952,
      "አዳዲስ": 1953,
      "ኮርፖ": 1954,
      "ሻምፒዮና": 1955,
      "ደቂቃ": 1956,
      "12": 1957,
      "200": 1958,
      "30": 1959,
      "ልጅ": 1960,
      "መጨረሻ": 1961,
      "ሜትር": 1962,
      "ምላሽ": 1963,
      "ስኬ": 1964,
      "ስልጣን": 1965,
      "ቁጥጥር": 1966,
      "በው": 1967,
      "በጎ": 1968,
      "በደ": 1969,
      "በዋ": 1970,
      "በሜ": 1971,
      "በጋ": 1972,
      "በሃ": 1973,
      "ባሉ": 1974,
      "ባደረጉት": 1975,
      "ተነሳ": 1976,
      "ተሳት": 1977,
      "ቴሌ": 1978,
      "አሁን": 1979,
      "እቅድ": 1980,
      "ዙር": 1981,
      "ዙሪያ": 1982,
      "የዲ": 1983,
      "የቆ": 1984,
      "የቤ": 1985,
      "የደን": 1986,
      "የኒው": 1987,
      "ዴኤ": 1988,
      "ገቢ": 1989,
      "ጠቁ": 1990,
      "##ልጠና": 1991,
      "##ካን": 1992,
      "##ራቅ": 1993,
      "##ገው": 1994,
      "##ለማ": 1995,
      "##ማር": 1996,
      "##ርማ": 1997,
      "##ረቃ": 1998,
      "##በብ": 1999,
      "##ግል": 2000,
      "##ጠራ": 2001,
      "##ጠቅ": 2002,
      "##ጨመረ": 2003,
      "##ሉም": 2004,
      "##ጥፋት": 2005,
      "##ነባ": 2006,
      "##ኮች": 2007,
      "##ቦችን": 2008,
      "##የው": 2009,
      "##ሽነት": 2010,
      "##ፖራ": 2011,
      "##ጭበር": 2012,
      "##ፀደ": 2013,
      "##ቂት": 2014,
      "##ጓዴ": 2015,
      "የሚገኘው": 2016,
      "የተመረ": 2017,
      "አስመ": 2018,
      "በአሁኑ": 2019,
      "በተመለ": 2020,
      "ለመቀ": 2021,
      "ባለው": 2022,
      "በማድረግ": 2023,
      "##ጀመረው": 2024,
      "ምርጥ": 2025,
      "##በረው": 2026,
      "የማይ": 2027,
      "የእግር": 2028,
      "የእንግሊዝ": 2029,
      "አውስትራሊያ": 2030,
      "የሆነውን": 2031,
      "##ጠናከር": 2032,
      "ኢንተር": 2033,
      "ኢንዱስትሪ": 2034,
      "##ካሄድ": 2035,
      "የግል": 2036,
      "##መለስ": 2037,
      "አይነት": 2038,
      "##ላማዊ": 2039,
      "##ረንጓዴ": 2040,
      "የፊልም": 2041,
      "ቦታዎች": 2042,
      "የበለጠ": 2043,
      "##ሳተፍ": 2044,
      "የአውሮፓ": 2045,
      "ያልተ": 2046,
      "##ፈረንሳይ": 2047,
      "ወጣቶች": 2048,
      "##ገንባት": 2049,
      "በተለይም": 2050,
      "ተግባራዊ": 2051,
      "የሟቾች": 2052,
      "11": 2053,
      "ሊቀ": 2054,
      "ልም": 2055,
      "መው": 2056,
      "ምል": 2057,
      "ምስ": 2058,
      "ረገድ": 2059,
      "ስት": 2060,
      "ስድስት": 2061,
      "ቀውስ": 2062,
      "በቴ": 2063,
      "በቁጥጥር": 2064,
      "ቢሮ": 2065,
      "ባል": 2066,
      "ባራክ": 2067,
      "ቤቶች": 2068,
      "ተፈራ": 2069,
      "ታሪካዊ": 2070,
      "ትን": 2071,
      "አዋ": 2072,
      "አጋ": 2073,
      "አደረጉ": 2074,
      "አዘጋ": 2075,
      "ኤን": 2076,
      "ኦባማ": 2077,
      "ከእ": 2078,
      "ከንቲ": 2079,
      "ወጥ": 2080,
      "ዘር": 2081,
      "ዘመን": 2082,
      "ዘገባ": 2083,
      "ዝርያ": 2084,
      "የደ": 2085,
      "የና": 2086,
      "የኩ": 2087,
      "የኬ": 2088,
      "የሕ": 2089,
      "ያላቸው": 2090,
      "ዲዛ": 2091,
      "ገደ": 2092,
      "ጥሪ": 2093,
      "##ካሁን": 2094,
      "##ምብ": 2095,
      "##ንዲ": 2096,
      "##ገልግሎ": 2097,
      "##ለቅ": 2098,
      "##ለውን": 2099,
      "##ማይ": 2100,
      "##ስፖራ": 2101,
      "##ሊያን": 2102,
      "##በሪያ": 2103,
      "##ዘግ": 2104,
      "##ሙን": 2105,
      "##ቃል": 2106,
      "##ቃወ": 2107,
      "##ተግ": 2108,
      "##ያይ": 2109,
      "##ባባ": 2110,
      "##ከርድ": 2111,
      "##ፍራ": 2112,
      "##ጂታል": 2113,
      "##ፊክ": 2114,
      "##ፃሚ": 2115,
      "##ጿል": 2116,
      "እንድ": 2117,
      "አስራ": 2118,
      "በመጠቀም": 2119,
      "በአል": 2120,
      "በአየር": 2121,
      "በማስ": 2122,
      "በማለት": 2123,
      "የእስራኤል": 2124,
      "እስካሁን": 2125,
      "አውሎ": 2126,
      "##ብርና": 2127,
      "የኢኮኖሚ": 2128,
      "የመጀመሪያውን": 2129,
      "##ረጋግ": 2130,
      "የሰሜን": 2131,
      "ያሉት": 2132,
      "አሸን": 2133,
      "እርዳታ": 2134,
      "##ይወት": 2135,
      "ዝግጅት": 2136,
      "ገለፀ": 2137,
      "##ከተማ": 2138,
      "##ሻሻል": 2139,
      "አስፈፃሚ": 2140,
      "##ረጋገጠ": 2141,
      "የጎርፍ": 2142,
      "ሽልማ": 2143,
      "ውጤት": 2144,
      "የሚያስችል": 2145,
      "ሁሉም": 2146,
      "##ሁለተኛ": 2147,
      "##ራተኞች": 2148,
      "ባለስልጣናት": 2149,
      "የሚጠጉ": 2150,
      "ባለሥልጣናት": 2151,
      "አውሮፕላን": 2152,
      "ጋዜጣ": 2153,
      "ሆስፒታል": 2154,
      "የሩሲያ": 2155,
      "በመተባበር": 2156,
      "የተሰኘው": 2157,
      "ማሻሻያ": 2158,
      "ቢያንስ": 2159,
      "##ፕሎማ": 2160,
      "##ጭበርበር": 2161,
      "100": 2162,
      "21": 2163,
      "ሂደት": 2164,
      "ህዝብ": 2165,
      "ህክምና": 2166,
      "ለሁለት": 2167,
      "መመ": 2168,
      "ማስተ": 2169,
      "ሜዳ": 2170,
      "ሪፐብ": 2171,
      "ሲሞቱ": 2172,
      "ሴት": 2173,
      "ቀጥ": 2174,
      "በኒው": 2175,
      "ተሳ": 2176,
      "ተጠቃ": 2177,
      "ታጣ": 2178,
      "ነፋስ": 2179,
      "አፍ": 2180,
      "አፀደ": 2181,
      "ኤች": 2182,
      "ከስ": 2183,
      "ክር": 2184,
      "ኮቪድ": 2185,
      "ዘመቻ": 2186,
      "ዜጎች": 2187,
      "ዝቅ": 2188,
      "የዕ": 2189,
      "የሳይ": 2190,
      "ጉብኝ": 2191,
      "##ሳዩ": 2192,
      "##ካተ": 2193,
      "##ምገ": 2194,
      "##ምስት": 2195,
      "##ሰት": 2196,
      "##ሰጡ": 2197,
      "##ፈፀ": 2198,
      "##ዳይ": 2199,
      "##ይቷል": 2200,
      "##ይማኖ": 2201,
      "##ገኛ": 2202,
      "##አዊ": 2203,
      "##ላቀ": 2204,
      "##ላሉ": 2205,
      "##ስለዋል": 2206,
      "##ሊፎር": 2207,
      "##በኛ": 2208,
      "##መጫ": 2209,
      "##መናዊ": 2210,
      "##ታለች": 2211,
      "##ጠቀ": 2212,
      "##ጠዋል": 2213,
      "##ተን": 2214,
      "##ሉን": 2215,
      "##ዊድን": 2216,
      "##ጋይ": 2217,
      "##ነው": 2218,
      "##ነዚህ": 2219,
      "##ከረም": 2220,
      "##ሪን": 2221,
      "##ሪፖር": 2222,
      "##ቷን": 2223,
      "##ኖር": 2224,
      "##ቻቸውን": 2225,
      "##ሎት": 2226,
      "##ዥያ": 2227,
      "##ሃኒት": 2228,
      "##ኒክ": 2229,
      "##ኪስታን": 2230,
      "##ሱን": 2231,
      "##ጮች": 2232,
      "##ጄሪያ": 2233,
      "##ኳይ": 2234,
      "##ፔን": 2235,
      "የተደረገ": 2236,
      "አስኪያ": 2237,
      "በመላ": 2238,
      "በተደረገው": 2239,
      "ለማግኘት": 2240,
      "##ላይት": 2241,
      "ከተሞች": 2242,
      "እንዳለው": 2243,
      "የማህ": 2244,
      "የማዕ": 2245,
      "አቅም": 2246,
      "አምራ": 2247,
      "በምት": 2248,
      "##ከሰተ": 2249,
      "አሳወ": 2250,
      "እየተደረገ": 2251,
      "አባል": 2252,
      "አሸነፈ": 2253,
      "አድርጎ": 2254,
      "እድል": 2255,
      "ወንዝ": 2256,
      "በታች": 2257,
      "ገልጿል": 2258,
      "ገለጻ": 2259,
      "ኮሚሽን": 2260,
      "የአውስትራሊያ": 2261,
      "በዓል": 2262,
      "መቀመጫ": 2263,
      "ይገኛሉ": 2264,
      "በረራ": 2265,
      "በሙሉ": 2266,
      "የጠፈር": 2267,
      "##ቋቋም": 2268,
      "እውቅና": 2269,
      "##ዝናኛ": 2270,
      "እገዳ": 2271,
      "በተመለከተ": 2272,
      "ከንቲባ": 2273,
      "14": 2274,
      "ሊያ": 2275,
      "ሕግ": 2276,
      "መደ": 2277,
      "መቶ": 2278,
      "መሠ": 2279,
      "መሬት": 2280,
      "መብት": 2281,
      "ምስራቅ": 2282,
      "ሥነ": 2283,
      "ሪከርድ": 2284,
      "ሰጥ": 2285,
      "ሰሜን": 2286,
      "ሳተ": 2287,
      "በሴ": 2288,
      "በፊ": 2289,
      "በስተ": 2290,
      "በጋራ": 2291,
      "ተሰ": 2292,
      "ተመር": 2293,
      "ትብብር": 2294,
      "ነገ": 2295,
      "ኒው": 2296,
      "አፈ": 2297,
      "አላ": 2298,
      "ኤል": 2299,
      "ኤክስ": 2300,
      "እሳት": 2301,
      "ከኢ": 2302,
      "ክብረ": 2303,
      "ዘው": 2304,
      "ዞን": 2305,
      "የዴ": 2306,
      "የዘ": 2307,
      "ጀር": 2308,
      "ገበያ": 2309,
      "ፍራን": 2310,
      "ፍቃድ": 2311,
      "ፔትሮ": 2312,
      "##ሚካ": 2313,
      "##ሚር": 2314,
      "##ውጣ": 2315,
      "##ልበት": 2316,
      "##ሳኝ": 2317,
      "##ምረት": 2318,
      "##ሰል": 2319,
      "##ፈጸ": 2320,
      "##ዳሚ": 2321,
      "##ለየ": 2322,
      "##ማሊያ": 2323,
      "##ርቅ": 2324,
      "##ዴራል": 2325,
      "##ዝገብ": 2326,
      "##ረጥ": 2327,
      "##ግሪ": 2328,
      "##ቸኳይ": 2329,
      "##ደሰ": 2330,
      "##ደዋል": 2331,
      "##ጠነ": 2332,
      "##ጥነት": 2333,
      "##ያል": 2334,
      "##ጋሚ": 2335,
      "##ነር": 2336,
      "##ነቱ": 2337,
      "##ነፍ": 2338,
      "##ሪዮ": 2339,
      "##ሪዎችን": 2340,
      "##ክተ": 2341,
      "##ሎምፒክ": 2342,
      "##ሌላ": 2343,
      "##ቦል": 2344,
      "##ህሳስ": 2345,
      "##ፋን": 2346,
      "##ፋር": 2347,
      "##50": 2348,
      "##ሔራዊ": 2349,
      "##ጧል": 2350,
      "የሚል": 2351,
      "የሚተ": 2352,
      "አስር": 2353,
      "በተባ": 2354,
      "ኢትዮጵያዊ": 2355,
      "እንደሚችል": 2356,
      "እየጨመረ": 2357,
      "አቀፉ": 2358,
      "መንገ": 2359,
      "አውራ": 2360,
      "ከአንድ": 2361,
      "ክልሎች": 2362,
      "2018": 2363,
      "##ካሄደ": 2364,
      "የግብፅ": 2365,
      "የመጀመሪያዋ": 2366,
      "በምስራቅ": 2367,
      "የሰው": 2368,
      "ተገኝተዋል": 2369,
      "አሳስ": 2370,
      "ማህበረሰብ": 2371,
      "##ናልድ": 2372,
      "መልኩ": 2373,
      "##ሲያዊ": 2374,
      "የሀገር": 2375,
      "ሆነው": 2376,
      "##ከለኛው": 2377,
      "በሆነው": 2378,
      "የፖለቲካ": 2379,
      "ፕሮጀክ": 2380,
      "ሁሉንም": 2381,
      "ወታደሮች": 2382,
      "ግድያ": 2383,
      "##ልክቶ": 2384,
      "##ሌክትሪክ": 2385,
      "ውድድሮች": 2386,
      "መድረክ": 2387,
      "አርቲስት": 2388,
      "በተጨማሪም": 2389,
      "ለማሳደግ": 2390,
      "አስተዋፅ": 2391,
      "ኢንቨስትመንት": 2392,
      "ነዋሪዎች": 2393,
      "##ጋቢት": 2394,
      "ኢንስቲትዩት": 2395,
      "ክትባት": 2396,
      "ጥቅም": 2397,
      "##ፕሬዚ": 2398,
      "አስመልክቶ": 2399,
      "ሪፐብሊክ": 2400,
      "##ምገማ": 2401,
      "17": 2402,
      "16": 2403,
      "25": 2404,
      "22": 2405,
      "50": 2406,
      "ሀገሪቱ": 2407,
      "ህንድ": 2408,
      "ሆኗል": 2409,
      "ለም": 2410,
      "መሞ": 2411,
      "መሸ": 2412,
      "መጀመሪያ": 2413,
      "መሪዎች": 2414,
      "መሆና": 2415,
      "ማለት": 2416,
      "ምዕራብ": 2417,
      "ሞት": 2418,
      "ሩጫ": 2419,
      "ሰላ": 2420,
      "ሳህ": 2421,
      "ሳቢያ": 2422,
      "ስታ": 2423,
      "ስፍራ": 2424,
      "ቀጣ": 2425,
      "ቃለ": 2426,
      "ቅር": 2427,
      "በፓ": 2428,
      "በሱ": 2429,
      "በትን": 2430,
      "ቤቱ": 2431,
      "ተራ": 2432,
      "ችግር": 2433,
      "ነፃ": 2434,
      "አወ": 2435,
      "አዛ": 2436,
      "ኢትዮ": 2437,
      "ኦር": 2438,
      "ከው": 2439,
      "ከታ": 2440,
      "ከዩ": 2441,
      "ከሆነ": 2442,
      "ክለ": 2443,
      "ወሳኝ": 2444,
      "የሜ": 2445,
      "የጋ": 2446,
      "የድ": 2447,
      "የከ": 2448,
      "የጉ": 2449,
      "የድር": 2450,
      "የቅር": 2451,
      "የፈጠ": 2452,
      "የጃፓን": 2453,
      "ይሰጣ": 2454,
      "ጃፓን": 2455,
      "ግሩ": 2456,
      "ግብር": 2457,
      "ጥቃ": 2458,
      "ጥሩ": 2459,
      "ጥራት": 2460,
      "ፈጣ": 2461,
      "ፊል": 2462,
      "##ሚን": 2463,
      "##ውው": 2464,
      "##ልካ": 2465,
      "##ምሌ": 2466,
      "##ምጣት": 2467,
      "##ሰኞ": 2468,
      "##ሰዋል": 2469,
      "##ፈዋል": 2470,
      "##ትና": 2471,
      "##ንካ": 2472,
      "##ዳሴ": 2473,
      "##ገተኛ": 2474,
      "##ለስ": 2475,
      "##ለመ": 2476,
      "##ለወርቅ": 2477,
      "##ማሩ": 2478,
      "##ርን": 2479,
      "##ርዝ": 2480,
      "##ላለች": 2481,
      "##ጀት": 2482,
      "##ቀሳ": 2483,
      "##ረብ": 2484,
      "##መጡ": 2485,
      "##ታገ": 2486,
      "##ጠቁ": 2487,
      "##ሙስ": 2488,
      "##ብስ": 2489,
      "##ዱን": 2490,
      "##ናው": 2491,
      "##ናን": 2492,
      "##ጥረ": 2493,
      "##ጥብ": 2494,
      "##ጫወ": 2495,
      "##ነቱን": 2496,
      "##ባሲ": 2497,
      "##ሞችን": 2498,
      "##ቻቸው": 2499,
      "##ዲዮ": 2500,
      "##ዚካ": 2501,
      "##ኪዮ": 2502,
      "##ሁሉም": 2503,
      "የሚገ": 2504,
      "የተገኙ": 2505,
      "የአል": 2506,
      "በመካ": 2507,
      "በመቃወ": 2508,
      "እንደገና": 2509,
      "ባለቤት": 2510,
      "በሚገኙ": 2511,
      "የኢትዮጵያን": 2512,
      "##000": 2513,
      "##ሆኑት": 2514,
      "እንዳስታወ": 2515,
      "እየሰራ": 2516,
      "እስር": 2517,
      "##ርትራ": 2518,
      "የኢራን": 2519,
      "የህንድ": 2520,
      "##ንዳታ": 2521,
      "ክልላዊ": 2522,
      "2011": 2523,
      "2019": 2524,
      "የግብርና": 2525,
      "ስርጭት": 2526,
      "አልባ": 2527,
      "ስምንት": 2528,
      "ኩባንያዎች": 2529,
      "ፕሬዚዳንት": 2530,
      "እያደረገ": 2531,
      "የታቀ": 2532,
      "እንደሚያስ": 2533,
      "የፊፋ": 2534,
      "##ዎቹን": 2535,
      "ፖሊሲ": 2536,
      "ሳይንስ": 2537,
      "##ዘጋጀው": 2538,
      "ኮሚቴ": 2539,
      "የሙዚቃ": 2540,
      "##ጠበቅ": 2541,
      "##ቆጣጠር": 2542,
      "የቀድሞው": 2543,
      "ሻምፒዮን": 2544,
      "ወታደራዊ": 2545,
      "ግድብ": 2546,
      "የፌደራል": 2547,
      "የፌዴራል": 2548,
      "ኤምባሲ": 2549,
      "ህዝቦች": 2550,
      "##ስተዋወቅ": 2551,
      "ሃይሎች": 2552,
      "አጠቃቀም": 2553,
      "ሆናለች": 2554,
      "አረቢያ": 2555,
      "ፍላጎት": 2556,
      "ተቃዋሚዎች": 2557,
      "ትኩረት": 2558,
      "እጅግ": 2559,
      "ጠቁመዋል": 2560,
      "ታጣቂዎች": 2561,
      "ክርስቲ": 2562,
      "##ሪፖርተር": 2563,
      "አስኪያጅ": 2564,
      "ይሰጣል": 2565,
      "መተግ": 2566,
      "ሙዚ": 2567,
      "ማሳ": 2568,
      "ማይ": 2569,
      "ማቀ": 2570,
      "ማረ": 2571,
      "ማመን": 2572,
      "ሰጠ": 2573,
      "ሰፊ": 2574,
      "ሽብር": 2575,
      "ቁር": 2576,
      "ቅሌት": 2577,
      "ቆይታ": 2578,
      "ቆስለዋል": 2579,
      "በዘ": 2580,
      "በሁለት": 2581,
      "በዝግ": 2582,
      "ቤን": 2583,
      "ብራ": 2584,
      "ብዛት": 2585,
      "ተነ": 2586,
      "ተፅ": 2587,
      "ተቆጣ": 2588,
      "ትር": 2589,
      "አጥ": 2590,
      "አገር": 2591,
      "አመራ": 2592,
      "አረንጓዴ": 2593,
      "ኤስ": 2594,
      "ኤፍ": 2595,
      "ከ2": 2596,
      "ከሁለት": 2597,
      "ካናዳ": 2598,
      "ወጪ": 2599,
      "ዘይት": 2600,
      "የፕ": 2601,
      "የራ": 2602,
      "የን": 2603,
      "የዳ": 2604,
      "የሊ": 2605,
      "የፓ": 2606,
      "የዋ": 2607,
      "የኖ": 2608,
      "የቢ": 2609,
      "የበረ": 2610,
      "የሰብ": 2611,
      "ያቀ": 2612,
      "ዲፕሎማ": 2613,
      "ዶናልድ": 2614,
      "ገድ": 2615,
      "ጠይ": 2616,
      "ጥና": 2617,
      "ጳጳ": 2618,
      "ፀሃ": 2619,
      "ፍንዳታ": 2620,
      "##ውዲ": 2621,
      "##ውጣት": 2622,
      "##ሳል": 2623,
      "##ምንት": 2624,
      "##ፕል": 2625,
      "##ሰው": 2626,
      "##ሰስ": 2627,
      "##ሰነ": 2628,
      "##ንዶች": 2629,
      "##ዳዳ": 2630,
      "##ዳሜ": 2631,
      "##ገረ": 2632,
      "##ቡክ": 2633,
      "##ማሌ": 2634,
      "##ላላ": 2635,
      "##ላቸውን": 2636,
      "##ቀቂያ": 2637,
      "##ረር": 2638,
      "##መስ": 2639,
      "##መሩ": 2640,
      "##ግዳ": 2641,
      "##ግዚ": 2642,
      "##ታንያ": 2643,
      "##ደተኞች": 2644,
      "##ወጥ": 2645,
      "##ወገድ": 2646,
      "##ጠፋ": 2647,
      "##ጠኞች": 2648,
      "##ብዙ": 2649,
      "##ኝቷል": 2650,
      "##ናይ": 2651,
      "##ናትን": 2652,
      "##ዊት": 2653,
      "##ሜናዊ": 2654,
      "##ያስፖራ": 2655,
      "##ባብ": 2656,
      "##ኩር": 2657,
      "##ኬት": 2658,
      "##ከርካ": 2659,
      "##ዶችን": 2660,
      "##ክሮ": 2661,
      "##ክለት": 2662,
      "##ክክለ": 2663,
      "##ቻል": 2664,
      "##ዥን": 2665,
      "##ቢኤ": 2666,
      "##ቲን": 2667,
      "##ሁድ": 2668,
      "##ቴል": 2669,
      "##ቤል": 2670,
      "##ሸነፍ": 2671,
      "##30": 2672,
      "##ሶችን": 2673,
      "##ሣይ": 2674,
      "እንስ": 2675,
      "እንኳን": 2676,
      "የሚደረጉ": 2677,
      "የሚገኝ": 2678,
      "የተጠረ": 2679,
      "የተፈጥሮ": 2680,
      "የአስ": 2681,
      "አስከ": 2682,
      "በመም": 2683,
      "በመስ": 2684,
      "እንደማይ": 2685,
      "ለመደገፍ": 2686,
      "ለማቅረብ": 2687,
      "ወደፊት": 2688,
      "በሚገኝ": 2689,
      "ምርቶች": 2690,
      "ኢትዮጵያን": 2691,
      "መንቀጥ": 2692,
      "ከአዲስ": 2693,
      "##ይናንስ": 2694,
      "የምት": 2695,
      "የምር": 2696,
      "ተገቢ": 2697,
      "ክፍሎች": 2698,
      "የወጣ": 2699,
      "በዚህም": 2700,
      "በእንግሊዝ": 2701,
      "ተብለው": 2702,
      "ተወካ": 2703,
      "##ጠቃላይ": 2704,
      "ሳምን": 2705,
      "ገለፁ": 2706,
      "##ነስተኛ": 2707,
      "በኢን": 2708,
      "አቅርበዋል": 2709,
      "አቅራቢ": 2710,
      "##ቆጣጠ": 2711,
      "##ሁለቱ": 2712,
      "##ደረሰበት": 2713,
      "##ልስጤ": 2714,
      "ባለስልጣን": 2715,
      "በአውስትራሊያ": 2716,
      "ያላቸውን": 2717,
      "##ለንደን": 2718,
      "አትሌቲክስ": 2719,
      "##ሌክትሮ": 2720,
      "የተከሰተው": 2721,
      "ሥርዓት": 2722,
      "በኦሮሚያ": 2723,
      "በሞት": 2724,
      "ደረሰ": 2725,
      "ደሴት": 2726,
      "ታማሚ": 2727,
      "ማክሰኞ": 2728,
      "የሥራ": 2729,
      "ባህላዊ": 2730,
      "##ብረተሰብ": 2731,
      "ታላቁ": 2732,
      "የሴቶች": 2733,
      "ኮርፖሬሽን": 2734,
      "የደህንነት": 2735,
      "##ገልግሎት": 2736,
      "ተጠቃሚ": 2737,
      "ጉብኝት": 2738,
      "የማዕድን": 2739,
      "ሳህለወርቅ": 2740,
      "በትንሹ": 2741,
      "የፈጠራ": 2742,
      "23": 2743,
      "40": 2744,
      "70": 2745,
      "ሀብት": 2746,
      "ለወ": 2747,
      "ሊሆን": 2748,
      "መታ": 2749,
      "መቃ": 2750,
      "መሣ": 2751,
      "ሙዚቃ": 2752,
      "ሚና": 2753,
      "ማል": 2754,
      "ማድረግ": 2755,
      "ማግኘት": 2756,
      "ምህ": 2757,
      "ሦስት": 2758,
      "ሰራ": 2759,
      "ሰልፍ": 2760,
      "ቅዳሜ": 2761,
      "በቶ": 2762,
      "በፍ": 2763,
      "በዲ": 2764,
      "በጉ": 2765,
      "በቻይና": 2766,
      "በጀት": 2767,
      "ተን": 2768,
      "ተኩ": 2769,
      "ተደረገ": 2770,
      "ተመረ": 2771,
      "ተዘግ": 2772,
      "ታይ": 2773,
      "ነዳጅ": 2774,
      "ነጥብ": 2775,
      "አነስተኛ": 2776,
      "ከበ": 2777,
      "ከጥ": 2778,
      "ከሚያ": 2779,
      "ካለው": 2780,
      "ክሪ": 2781,
      "ወስ": 2782,
      "ወጣት": 2783,
      "ውዝ": 2784,
      "ዕድ": 2785,
      "ዜግ": 2786,
      "ዝርዝ": 2787,
      "የለ": 2788,
      "የቦ": 2789,
      "የሆ": 2790,
      "የፋ": 2791,
      "የያዘ": 2792,
      "ይካሄ": 2793,
      "ደብ": 2794,
      "ጀመረ": 2795,
      "ጆን": 2796,
      "ግል": 2797,
      "ጠየ": 2798,
      "ፈጠራ": 2799,
      "##ካሪ": 2800,
      "##ሰድ": 2801,
      "##ፈለ": 2802,
      "##ራሉ": 2803,
      "##ራኩር": 2804,
      "##ንቋ": 2805,
      "##ንባ": 2806,
      "##ዳጊ": 2807,
      "##ገውን": 2808,
      "##ቡባዊ": 2809,
      "##ለሁ": 2810,
      "##ጎልበት": 2811,
      "##ስሊ": 2812,
      "##ስታ": 2813,
      "##ስቡክ": 2814,
      "##ሊየም": 2815,
      "##ሮው": 2816,
      "##ቀፍ": 2817,
      "##ረታ": 2818,
      "##ረፍ": 2819,
      "##በታል": 2820,
      "##መዘገበ": 2821,
      "##ግሉ": 2822,
      "##ታር": 2823,
      "##ታታይ": 2824,
      "##ደጋ": 2825,
      "##ወለ": 2826,
      "##ወስ": 2827,
      "##ቃቤ": 2828,
      "##ቃለች": 2829,
      "##ጣሪያ": 2830,
      "##ሻን": 2831,
      "##ጥረት": 2832,
      "##ጋና": 2833,
      "##ጋኒ": 2834,
      "##ጋቸው": 2835,
      "##ነታቸውን": 2836,
      "##ባቸውን": 2837,
      "##ቫይ": 2838,
      "##ድግ": 2839,
      "##ድሜ": 2840,
      "##ድድር": 2841,
      "##ኬሽን": 2842,
      "##ከፋ": 2843,
      "##ኖሩ": 2844,
      "##ቁት": 2845,
      "##ክሳስ": 2846,
      "##ሞት": 2847,
      "##ፍታት": 2848,
      "##ኛውን": 2849,
      "##ዮችን": 2850,
      "##ዮርክ": 2851,
      "##ኮት": 2852,
      "##ሃን": 2853,
      "##ቆሙ": 2854,
      "##ሽከርካ": 2855,
      "##ጅቱ": 2856,
      "##ዛሬ": 2857,
      "##ፊው": 2858,
      "##ፖሊ": 2859,
      "##ጊዜ": 2860,
      "የአዲስ": 2861,
      "በመፍጠር": 2862,
      "በአስ": 2863,
      "በማሸነፍ": 2864,
      "በሚያ": 2865,
      "በሚቀጥ": 2866,
      "##ደርገውን": 2867,
      "##ሆንም": 2868,
      "እስራ": 2869,
      "እስራት": 2870,
      "##ድረስ": 2871,
      "አገኙ": 2872,
      "ግንባ": 2873,
      "ያለመ": 2874,
      "ፕሮፌ": 2875,
      "መስመር": 2876,
      "መስከረም": 2877,
      "የምታ": 2878,
      "ሚኒስቴሩ": 2879,
      "2014": 2880,
      "ስርዓ": 2881,
      "##መለሱ": 2882,
      "በምዕራብ": 2883,
      "አልበ": 2884,
      "የሰላም": 2885,
      "ተገደ": 2886,
      "ክፍያ": 2887,
      "የወርቅ": 2888,
      "አድርገዋል": 2889,
      "የካናዳ": 2890,
      "ተወያይ": 2891,
      "እድሜ": 2892,
      "እድገት": 2893,
      "በግን": 2894,
      "አለፈ": 2895,
      "የፊሊፒንስ": 2896,
      "የበሽ": 2897,
      "ገልፀ": 2898,
      "የብሪ": 2899,
      "##ኤስኤ": 2900,
      "አስታውቀዋል": 2901,
      "ተናግሯል": 2902,
      "ሁለቱ": 2903,
      "##ገበያ": 2904,
      "##ረጋገጥ": 2905,
      "የጎዳና": 2906,
      "የሀገሪቱ": 2907,
      "##ገናኘ": 2908,
      "ውጤታማ": 2909,
      "የቴሌ": 2910,
      "ተመሳሳይ": 2911,
      "ጦርነት": 2912,
      "ተከታታይ": 2913,
      "ድንበር": 2914,
      "ድንገተኛ": 2915,
      "በአውሮፓ": 2916,
      "አሰልጣ": 2917,
      "##ዘርላንድ": 2918,
      "ተቋም": 2919,
      "አድማ": 2920,
      "በተለይ": 2921,
      "ኃይሎች": 2922,
      "አውሮፕላ": 2923,
      "መድሃኒት": 2924,
      "በ19": 2925,
      "አጠቃላይ": 2926,
      "##ጀርመን": 2927,
      "ዝግጅቶች": 2928,
      "ኮንግረስ": 2929,
      "በአማራ": 2930,
      "መምሪያ": 2931,
      "##ይዘሮ": 2932,
      "ማህበራዊ": 2933,
      "መጨመር": 2934,
      "አደረገች": 2935,
      "እንግሊዝ": 2936,
      "ትራምፕ": 2937,
      "ዘግቧል": 2938,
      "2021": 2939,
      "ተነሳሽነት": 2940,
      "ተሳትፎ": 2941,
      "##ጠቅላይ": 2942,
      "አዋጅ": 2943,
      "ሜዳሊያ": 2944,
      "አፀደቀ": 2945,
      "ዝቅተኛ": 2946,
      "##ሊፎርኒያ": 2947,
      "አውራጃ": 2948,
      "አስተዋፅኦ": 2949,
      "መሆናቸውን": 2950,
      "ግሩፕ": 2951,
      "ማመንጫ": 2952,
      "መንቀጥቀጥ": 2953,
      "ተወካዮች": 2954,
      "መሣሪያ": 2955,
      "ይካሄዳል": 2956,
      "24": 2957,
      "ሀብ": 2958,
      "ሆቴል": 2959,
      "ለስ": 2960,
      "ለቀ": 2961,
      "ለጋ": 2962,
      "ለእ": 2963,
      "ለሶ": 2964,
      "ላሉ": 2965,
      "ሕዝ": 2966,
      "መጽ": 2967,
      "መኮ": 2968,
      "መጀመ": 2969,
      "መገኘ": 2970,
      "መብቶች": 2971,
      "ማር": 2972,
      "ማጭበርበር": 2973,
      "ምግብ": 2974,
      "ሰከ": 2975,
      "ሰጪ": 2976,
      "ሰባት": 2977,
      "ሰአት": 2978,
      "ስጋት": 2979,
      "ሽያ": 2980,
      "ቀድሞ": 2981,
      "ቅድ": 2982,
      "ቆይቷል": 2983,
      "በር": 2984,
      "በዴ": 2985,
      "በሲ": 2986,
      "በቦ": 2987,
      "በሕ": 2988,
      "በ20": 2989,
      "በክል": 2990,
      "በጃፓን": 2991,
      "በሁሉም": 2992,
      "ቢሆንም": 2993,
      "ተል": 2994,
      "ተካ": 2995,
      "ተገድ": 2996,
      "ተደራ": 2997,
      "ቱሪ": 2998,
      "ታስ": 2999,
      "ታደሰ": 3000,
      "ትእ": 3001,
      "ትክክለ": 3002,
      "አራ": 3003,
      "አዘ": 3004,
      "ኢራን": 3005,
      "እጩ": 3006,
      "እይታ": 3007,
      "እነዚህ": 3008,
      "ከቀ": 3009,
      "ከስራ": 3010,
      "ኪሎ": 3011,
      "ኪንግ": 3012,
      "ካንሰር": 3013,
      "ኬሚካል": 3014,
      "ወባ": 3015,
      "ወይዘሮ": 3016,
      "ዘንድ": 3017,
      "የቡ": 3018,
      "የጣ": 3019,
      "የጨ": 3020,
      "የቅ": 3021,
      "የሪ": 3022,
      "የጭ": 3023,
      "የፈረን": 3024,
      "የከተማ": 3025,
      "የዚካ": 3026,
      "ያደረጉ": 3027,
      "ይጨ": 3028,
      "ይኖ": 3029,
      "ይሆ": 3030,
      "ዮርክ": 3031,
      "ዲጂታል": 3032,
      "ዲግሪ": 3033,
      "ዴቪድ": 3034,
      "ጆር": 3035,
      "ገብረ": 3036,
      "ግዜ": 3037,
      "ጥን": 3038,
      "ጥር": 3039,
      "ጨምሯል": 3040,
      "ፈንድ": 3041,
      "ፈረን": 3042,
      "ፓርክ": 3043,
      "ፕሪ": 3044,
      "።\"": 3045,
      "##ሚክ": 3046,
      "##ልተ": 3047,
      "##ካታ": 3048,
      "##ካቤ": 3049,
      "##ምድ": 3050,
      "##ፕራይ": 3051,
      "##ሰጠ": 3052,
      "##ሰቢያ": 3053,
      "##ሄድ": 3054,
      "##ትህ": 3055,
      "##ንፃ": 3056,
      "##ይዳ": 3057,
      "##ይቱ": 3058,
      "##ይስ": 3059,
      "##ይቅ": 3060,
      "##ቡን": 3061,
      "##ለል": 3062,
      "##ለር": 3063,
      "##ማማ": 3064,
      "##ችውን": 3065,
      "##ርኛ": 3066,
      "##ርነት": 3067,
      "##ላቱ": 3068,
      "##ላድ": 3069,
      "##ቱት": 3070,
      "##ስብ": 3071,
      "##ሮም": 3072,
      "##ቀል": 3073,
      "##ቀስ": 3074,
      "##ረሙ": 3075,
      "##ረቤት": 3076,
      "##በው": 3077,
      "##በኙ": 3078,
      "##በራዊ": 3079,
      "##በኞች": 3080,
      "##ታፊ": 3081,
      "##ታችን": 3082,
      "##ደል": 3083,
      "##ደና": 3084,
      "##ዋት": 3085,
      "##ወጡ": 3086,
      "##ጠኛ": 3087,
      "##ሙማን": 3088,
      "##ብል": 3089,
      "##ብዩ": 3090,
      "##ብካቤ": 3091,
      "##ዱስ": 3092,
      "##ተና": 3093,
      "##ናሽ": 3094,
      "##ዊስ": 3095,
      "##ሜት": 3096,
      "##ሜሽን": 3097,
      "##ጥሯል": 3098,
      "##ያኖ": 3099,
      "##ጋን": 3100,
      "##ጋንዳ": 3101,
      "##ጋጋት": 3102,
      "##ድስ": 3103,
      "##ኩራኩር": 3104,
      "##ከፈ": 3105,
      "##ከስ": 3106,
      "##ከሉ": 3107,
      "##ቪዥን": 3108,
      "##ኖራቸው": 3109,
      "##ሞን": 3110,
      "##ፍን": 3111,
      "##ዮኖች": 3112,
      "##ሎስ": 3113,
      "##ሌም": 3114,
      "##ሌጅ": 3115,
      "##ሌሎች": 3116,
      "##ኒኬሽን": 3117,
      "##ጦች": 3118,
      "##ጅነት": 3119,
      "##ኔስኮ": 3120,
      "##ዛዝ": 3121,
      "##ሺያ": 3122,
      "##ጭር": 3123,
      "##ዜጠኞች": 3124,
      "##ዞች": 3125,
      "##ሕር": 3126,
      "##ፁት": 3127,
      "##ጹት": 3128,
      "እናም": 3129,
      "##ውንድ": 3130,
      "በመጀመሪያ": 3131,
      "በመዲና": 3132,
      "እንደምት": 3133,
      "በአይ": 3134,
      "በአገር": 3135,
      "በአገሪቱ": 3136,
      "በአካባቢ": 3137,
      "በአጠቃላይ": 3138,
      "##ሪያል": 3139,
      "##ንግሥት": 3140,
      "በተነሳ": 3141,
      "የመን": 3142,
      "ለመግ": 3143,
      "ለመክ": 3144,
      "ለማጠናከር": 3145,
      "ባለመ": 3146,
      "##በርካታ": 3147,
      "##ገኘውን": 3148,
      "የእን": 3149,
      "መንደር": 3150,
      "መንኩራኩር": 3151,
      "አገሮች": 3152,
      "የኢትዮ": 3153,
      "##መረጋጋት": 3154,
      "የነበሩ": 3155,
      "##መንበር": 3156,
      "በሰጡት": 3157,
      "##መለከት": 3158,
      "##ሚያዊ": 3159,
      "አስታወቀች": 3160,
      "ተገና": 3161,
      "ክፍት": 3162,
      "የባህል": 3163,
      "መርከብ": 3164,
      "አብዮ": 3165,
      "ኩባንያው": 3166,
      "የቀረበ": 3167,
      "ተናገሩ": 3168,
      "ማዕቀ": 3169,
      "የኮቪድ": 3170,
      "እንደሚያሳ": 3171,
      "በግብፅ": 3172,
      "##ኮኖሚያዊ": 3173,
      "የብሄራዊ": 3174,
      "አርብ": 3175,
      "የሶስት": 3176,
      "አቅርቧል": 3177,
      "ወረርሽኙ": 3178,
      "##ስፋፋ": 3179,
      "የሞቱ": 3180,
      "##ገናኛ": 3181,
      "ተመራማሪ": 3182,
      "አህጉ": 3183,
      "ጨዋታዎች": 3184,
      "##ጠበቀ": 3185,
      "##ከለኛ": 3186,
      "ማስጠን": 3187,
      "##ትሌቲክስ": 3188,
      "##ቀርብ": 3189,
      "በህንድ": 3190,
      "የክል": 3191,
      "በዩናይትድ": 3192,
      "ያላትን": 3193,
      "የፀረ": 3194,
      "የቱርክ": 3195,
      "የቱሪዝም": 3196,
      "##አይቪ": 3197,
      "የልማት": 3198,
      "የተባለውን": 3199,
      "የተከሰተ": 3200,
      "##ሞክራቲክ": 3201,
      "ያደርጋ": 3202,
      "ከነበረው": 3203,
      "ተስማሙ": 3204,
      "ግለሰቦች": 3205,
      "##ያዝያ": 3206,
      "ደጋፊዎች": 3207,
      "አገሪቱ": 3208,
      "ሚሊየን": 3209,
      "ርዕስ": 3210,
      "ቡድኖች": 3211,
      "ይዘት": 3212,
      "##ከታተ": 3213,
      "##ጅምላ": 3214,
      "የፖሊሲ": 3215,
      "በ200": 3216,
      "በሶሪያ": 3217,
      "ተደርጓል": 3218,
      "የተቃዋ": 3219,
      "በተፈጠረ": 3220,
      "በተፈጠረው": 3221,
      "ድርጅቶች": 3222,
      "በዋና": 3223,
      "ቴሌኮም": 3224,
      "ዴኤታ": 3225,
      "የኬሚካል": 3226,
      "##ረጋግጧል": 3227,
      "ጋዜጣዊ": 3228,
      "##ፈፀም": 3229,
      "##ይማኖት": 3230,
      "አሳወቀ": 3231,
      "መደበኛ": 3232,
      "ሳተላይት": 3233,
      "ፔትሮሊየም": 3234,
      "በሱዳን": 3235,
      "በመቃወም": 3236,
      "ዜግነት": 3237,
      "ዝርዝር": 3238,
      "ፕሮፌሰር": 3239,
      "ተወያይተዋል": 3240,
      "አሰልጣኝ": 3241,
      "ለጋዜጠኞች": 3242,
      "ይሆናል": 3243,
      "27": 3244,
      "ሀይ": 3245,
      "ሃያ": 3246,
      "ሃላፊ": 3247,
      "ሃሳብ": 3248,
      "ህዋ": 3249,
      "ህጻ": 3250,
      "ህፃ": 3251,
      "ህዳሴ": 3252,
      "ህሙማን": 3253,
      "ለህ": 3254,
      "ለሁለተኛ": 3255,
      "ለሌላ": 3256,
      "ለሪፖርተር": 3257,
      "ልዑ": 3258,
      "ሐሙስ": 3259,
      "መዋ": 3260,
      "መጥ": 3261,
      "መሃ": 3262,
      "መሐ": 3263,
      "መጠቀም": 3264,
      "መፍት": 3265,
      "መቆጣጠ": 3266,
      "ማው": 3267,
      "ርቀት": 3268,
      "ሰነ": 3269,
      "ሰራተኞች": 3270,
      "ሲቲ": 3271,
      "ሲባል": 3272,
      "ስትል": 3273,
      "ስደተኞች": 3274,
      "ቋንቋ": 3275,
      "በሊ": 3276,
      "በክ": 3277,
      "በዚ": 3278,
      "በቤ": 3279,
      "በፀ": 3280,
      "በሁለቱ": 3281,
      "ብክለት": 3282,
      "ቭላድ": 3283,
      "ተጀ": 3284,
      "ተጋ": 3285,
      "ተገኘ": 3286,
      "ተማሪ": 3287,
      "ተግዳ": 3288,
      "ትውል": 3289,
      "ነጋ": 3290,
      "አሉ": 3291,
      "አሌ": 3292,
      "አጠና": 3293,
      "እሁድ": 3294,
      "ኦፕ": 3295,
      "ኦሊ": 3296,
      "ኦክ": 3297,
      "ኦሎምፒክ": 3298,
      "ከባ": 3299,
      "ከሀ": 3300,
      "ኪም": 3301,
      "ካሉ": 3302,
      "ኬንያ": 3303,
      "ኮንሰ": 3304,
      "ኮሮና": 3305,
      "ወንድ": 3306,
      "ዕቃ": 3307,
      "ዘላ": 3308,
      "ዘመናዊ": 3309,
      "የዝ": 3310,
      "የሮ": 3311,
      "የሲ": 3312,
      "የጃ": 3313,
      "የድን": 3314,
      "የቤት": 3315,
      "የሁለ": 3316,
      "ደራ": 3317,
      "ጂኦ": 3318,
      "ገዳይ": 3319,
      "ጋዝ": 3320,
      "ጋብ": 3321,
      "ግራ": 3322,
      "ግብረ": 3323,
      "ግምገማ": 3324,
      "ጎል": 3325,
      "ጎርፍ": 3326,
      "ጠንካ": 3327,
      "ጥራ": 3328,
      "ጭስ": 3329,
      "ፉት": 3330,
      "ፍሰት": 3331,
      "ፑቲን": 3332,
      "ፖለቲካ": 3333,
      "።”": 3334,
      "##ሚኒ": 3335,
      "##ውሮፓ": 3336,
      "##ሳቢ": 3337,
      "##ምሩ": 3338,
      "##ምራል": 3339,
      "##ፈና": 3340,
      "##ፈልግ": 3341,
      "##ራቸውን": 3342,
      "##ዳደ": 3343,
      "##ይነት": 3344,
      "##ገነባ": 3345,
      "##ቡል": 3346,
      "##አቀፍ": 3347,
      "##ማል": 3348,
      "##ማስ": 3349,
      "##ማለች": 3350,
      "##ማቸውን": 3351,
      "##ርጥ": 3352,
      "##ርዶ": 3353,
      "##ላከ": 3354,
      "##ላሴ": 3355,
      "##ጎዱ": 3356,
      "##ስካር": 3357,
      "##ሮድ": 3358,
      "##ቀን": 3359,
      "##ረሰቦች": 3360,
      "##ግቢ": 3361,
      "##ደስ": 3362,
      "##ደውን": 3363,
      "##ደፊት": 3364,
      "##ጠኝ": 3365,
      "##ሙት": 3366,
      "##ቶቹ": 3367,
      "##ብሮች": 3368,
      "##ብሯል": 3369,
      "##ቃዊ": 3370,
      "##ቃይዳ": 3371,
      "##ጨምር": 3372,
      "##ተኮ": 3373,
      "##ቅምት": 3374,
      "##ሲስ": 3375,
      "##ያት": 3376,
      "##ያቂ": 3377,
      "##ያየት": 3378,
      "##ጋዊ": 3379,
      "##ጫት": 3380,
      "##ቁሟል": 3381,
      "##ክሌ": 3382,
      "##ክኒክ": 3383,
      "##ዲን": 3384,
      "##እኖ": 3385,
      "##እኮ": 3386,
      "##ኒሳ": 3387,
      "##ኒማ": 3388,
      "##ኒስቴ": 3389,
      "##ኒክስ": 3390,
      "##ህጉ": 3391,
      "##ህፈት": 3392,
      "##ዕኖ": 3393,
      "##ቆመ": 3394,
      "##ሴት": 3395,
      "##ሆኗ": 3396,
      "##ሁንም": 3397,
      "##ቴጂ": 3398,
      "##ፋዊ": 3399,
      "##ጭትን": 3400,
      "##ፃሜ": 3401,
      "##ሸራተ": 3402,
      "##ሦስት": 3403,
      "##ጄኔ": 3404,
      "የሚታ": 3405,
      "የሚቆ": 3406,
      "የሚሆን": 3407,
      "የተራ": 3408,
      "የተያዙ": 3409,
      "የተውጣ": 3410,
      "የአፍ": 3411,
      "የአገልግሎት": 3412,
      "አስገድ": 3413,
      "አስጠን": 3414,
      "በመግ": 3415,
      "በመስጠት": 3416,
      "በመንግስት": 3417,
      "በመላክ": 3418,
      "በተከሰ": 3419,
      "የመረጃ": 3420,
      "የመከላከያ": 3421,
      "##ንድሮው": 3422,
      "እንዲደረግ": 3423,
      "ለመገንባት": 3424,
      "##ንትናው": 3425,
      "ባለቤ": 3426,
      "ባለድር": 3427,
      "ባለመቻ": 3428,
      "በማን": 3429,
      "በማዕ": 3430,
      "በማሻሻል": 3431,
      "ከተደረገ": 3432,
      "ከተለያዩ": 3433,
      "በሚደረገው": 3434,
      "በሚመለከት": 3435,
      "##ደረገውን": 3436,
      "ጊዜያዊ": 3437,
      "##ታወቀ": 3438,
      "እስረ": 3439,
      "አቅምን": 3440,
      "የሚያደርግ": 3441,
      "ጉዳዮችን": 3442,
      "የሆነችው": 3443,
      "ከአለም": 3444,
      "የኢቦላ": 3445,
      "##ስራቃዊ": 3446,
      "መስፋ": 3447,
      "መስሪያ": 3448,
      "የህግ": 3449,
      "2017": 3450,
      "##ርክር": 3451,
      "በሰላም": 3452,
      "##ገሪቱን": 3453,
      "ስራዎችን": 3454,
      "##ከሰት": 3455,
      "##ባንያው": 3456,
      "ዓመቱ": 3457,
      "ማዕድን": 3458,
      "እድገ": 3459,
      "##ግባር": 3460,
      "አለመ": 3461,
      "አለመረጋጋት": 3462,
      "##ሰራው": 3463,
      "##ሰራጨ": 3464,
      "ቦታዎችን": 3465,
      "ወንጀ": 3466,
      "ዝግጁ": 3467,
      "መልእ": 3468,
      "##ሳተፉ": 3469,
      "ከሚገኙ": 3470,
      "ከሚገኘው": 3471,
      "##ርያም": 3472,
      "የነበረውን": 3473,
      "##ፈጠረ": 3474,
      "ስቴት": 3475,
      "የሞት": 3476,
      "##ረጋገጫ": 3477,
      "##ረጋገጡ": 3478,
      "ንግግር": 3479,
      "ሆነዋል": 3480,
      "ኮሚሽ": 3481,
      "በዓልን": 3482,
      "##ቀርባል": 3483,
      "የትግራይ": 3484,
      "የኦሮሚያ": 3485,
      "እርምጃዎችን": 3486,
      "ፓርኮች": 3487,
      "ተቋማት": 3488,
      "የፀጥታ": 3489,
      "የተመዘገበ": 3490,
      "የተመሰረ": 3491,
      "##አይዲ": 3492,
      "##ስተኛው": 3493,
      "##ፎርሜሽን": 3494,
      "ሁለተኛው": 3495,
      "አትሌቶች": 3496,
      "የ2011": 3497,
      "መሳሪያዎች": 3498,
      "ታዋቂው": 3499,
      "አግኝተዋል": 3500,
      "ገብቷል": 3501,
      "##ጠናቀቀ": 3502,
      "በድጋሚ": 3503,
      "ተዋጊ": 3504,
      "አርቲስቶች": 3505,
      "ያደርጋል": 3506,
      "ማእከል": 3507,
      "ታማሚዎች": 3508,
      "ችግሮች": 3509,
      "ግለሰ": 3510,
      "የአይሲቲ": 3511,
      "እንደገለፁት": 3512,
      "ፋብሪካዎች": 3513,
      "ማህበራት": 3514,
      "##ድሮስ": 3515,
      "የመጣውን": 3516,
      "##በረታታት": 3517,
      "##ብረተሰቡ": 3518,
      "የቤተ": 3519,
      "ዴኤታው": 3520,
      "##ለማችን": 3521,
      "ሊቀመንበር": 3522,
      "ምልልስ": 3523,
      "ዲዛይነ": 3524,
      "##ባባሪ": 3525,
      "እንድት": 3526,
      "ተሳታፊ": 3527,
      "የሳይበር": 3528,
      "አምራች": 3529,
      "በምትገኘው": 3530,
      "ዘውዴ": 3531,
      "መንገዶች": 3532,
      "አሳስበዋል": 3533,
      "ፕሮጀክቱ": 3534,
      "መተግበሪያ": 3535,
      "በዝግጅቱ": 3536,
      "የኖቤል": 3537,
      "የሰብአዊ": 3538,
      "እንስሳት": 3539,
      "የተጠረጠሩ": 3540,
      "የአስቸኳይ": 3541,
      "ተገቢውን": 3542,
      "ሳምንታት": 3543,
      "##ልስጤም": 3544,
      "##ሌክትሮኒክስ": 3545,
      "በፍጥነት": 3546,
      "##ጋኒስታን": 3547,
      "እስራኤል": 3548,
      "ግንባታ": 3549,
      "ገልፀዋል": 3550,
      "የብሪታንያ": 3551,
      "ሰከንድ": 3552,
      "ሽያጭ": 3553,
      "ተልእኮ": 3554,
      "ይጨምራል": 3555,
      "ማስጠንቀቂያ": 3556,
      "የተቃዋሚ": 3557,
      "መቆጣጠሪያ": 3558,
      "ማውጫ": 3559,
      "ቭላድሚር": 3560,
      "ተግዳሮ": 3561,
      "ኮንሰርት": 3562,
      "ጠንካራ": 3563,
      "የተውጣጡ": 3564,
      "አስጠንቅ": 3565,
      "ባለድርሻ": 3566,
      ")፣": 3567,
      "42": 3568,
      "500": 3569,
      "ሃብት": 3570,
      "ለፍ": 3571,
      "ለሕ": 3572,
      "ለሞት": 3573,
      "ሌላ": 3574,
      "ልጃ": 3575,
      "መራ": 3576,
      "መዳ": 3577,
      "መዝ": 3578,
      "መሆን": 3579,
      "መገደ": 3580,
      "መኪና": 3581,
      "ሙላቱ": 3582,
      "ሚያዝያ": 3583,
      "ማለ": 3584,
      "ማይል": 3585,
      "ማረጋገጫ": 3586,
      "ምዝ": 3587,
      "ምቹ": 3588,
      "ሠራተኞች": 3589,
      "ረቂ": 3590,
      "ሩት": 3591,
      "ሪፖር": 3592,
      "ሯጮች": 3593,
      "ሰብ": 3594,
      "ሰኞ": 3595,
      "ሰኔ": 3596,
      "ሰራተ": 3597,
      "ሰላማዊ": 3598,
      "ሲቪ": 3599,
      "ስል": 3600,
      "ሶሪያ": 3601,
      "ቀጠ": 3602,
      "ቀንድ": 3603,
      "ቅሪ": 3604,
      "ቅርስ": 3605,
      "በል": 3606,
      "በይ": 3607,
      "በቱ": 3608,
      "በኬ": 3609,
      "በፌ": 3610,
      "በሆ": 3611,
      "በዌ": 3612,
      "በ6": 3613,
      "በ8": 3614,
      "በሆኑ": 3615,
      "በጤና": 3616,
      "በጦር": 3617,
      "በፈረንሳይ": 3618,
      "በፕሬዚ": 3619,
      "በለንደን": 3620,
      "ባደረገው": 3621,
      "ብል": 3622,
      "ብቸ": 3623,
      "ተዋል": 3624,
      "ተጠና": 3625,
      "ተማሪዎች": 3626,
      "ተሰጥ": 3627,
      "ቱሪዝም": 3628,
      "ትግ": 3629,
      "ነች": 3630,
      "ነሐ": 3631,
      "ናይ": 3632,
      "ንጉ": 3633,
      "ኛው": 3634,
      "አሻ": 3635,
      "አቋ": 3636,
      "አከ": 3637,
      "አገኘ": 3638,
      "አሳይ": 3639,
      "አቃቤ": 3640,
      "አሁንም": 3641,
      "ኢኮኖሚያዊ": 3642,
      "እሱ": 3643,
      "ኦፍ": 3644,
      "ከግ": 3645,
      "ከዘ": 3646,
      "ከጠ": 3647,
      "ከኮ": 3648,
      "ከህ": 3649,
      "ከ6": 3650,
      "ከ201": 3651,
      "ከ20": 3652,
      "ካም": 3653,
      "ካፍ": 3654,
      "ካፒ": 3655,
      "ኬሚካ": 3656,
      "ክላ": 3657,
      "ክስተ": 3658,
      "ኮንት": 3659,
      "ወል": 3660,
      "ወገን": 3661,
      "ወሰነ": 3662,
      "ውህ": 3663,
      "ዚላንድ": 3664,
      "የፈ": 3665,
      "የላ": 3666,
      "የረ": 3667,
      "የሱ": 3668,
      "የሽ": 3669,
      "የቼ": 3670,
      "የኑ": 3671,
      "የዓ": 3672,
      "የቬ": 3673,
      "የክት": 3674,
      "የፈረንሳይ": 3675,
      "የጅምላ": 3676,
      "ዩን": 3677,
      "ዩናይትድ": 3678,
      "ዩኤስኤ": 3679,
      "ያማ": 3680,
      "ያህል": 3681,
      "ያካተ": 3682,
      "ያቀርባል": 3683,
      "ይወ": 3684,
      "ይሆና": 3685,
      "ደህን": 3686,
      "ዳግ": 3687,
      "ዳኛ": 3688,
      "ድራ": 3689,
      "ጀል": 3690,
      "ጀምሯል": 3691,
      "ጉድ": 3692,
      "ጌታ": 3693,
      "ግዙ": 3694,
      "ግማሽ": 3695,
      "ጎብኝ": 3696,
      "ጎዳና": 3697,
      "ጥበብ": 3698,
      "ፀረ": 3699,
      "ፈቃ": 3700,
      "ፈቃድ": 3701,
      "ፈተና": 3702,
      "ፋይናንስ": 3703,
      "ፌስቡክ": 3704,
      "ፓስ": 3705,
      "ፓኪስታን": 3706,
      "ፓውንድ": 3707,
      "ፕላ": 3708,
      "ፖለ": 3709,
      "##ሚት": 3710,
      "##ውሰድ": 3711,
      "##ልቅ": 3712,
      "##ልሂ": 3713,
      "##ሬዳ": 3714,
      "##ሬድ": 3715,
      "##ሳዊ": 3716,
      "##ሳትን": 3717,
      "##ሳቸውን": 3718,
      "##ምስ": 3719,
      "##ምታ": 3720,
      "##ምባ": 3721,
      "##ምቢ": 3722,
      "##ምፅ": 3723,
      "##ምበር": 3724,
      "##ምተዋል": 3725,
      "##ምቀት": 3726,
      "##ፈቻ": 3727,
      "##ራትን": 3728,
      "##ራቴጂ": 3729,
      "##ንደ": 3730,
      "##ንዱ": 3731,
      "##ንዛ": 3732,
      "##ንደር": 3733,
      "##ዳማ": 3734,
      "##ገወጥ": 3735,
      "##ቡር": 3736,
      "##ቡቲ": 3737,
      "##ለድ": 3738,
      "##ለፀ": 3739,
      "##ለፈው": 3740,
      "##ማራ": 3741,
      "##ማቸው": 3742,
      "##ችሁ": 3743,
      "##ችለውን": 3744,
      "##ርኩ": 3745,
      "##ርዳት": 3746,
      "##ላሚ": 3747,
      "##ላቁ": 3748,
      "##ላትን": 3749,
      "##ዴዎች": 3750,
      "##ሊድ": 3751,
      "##ዝሃ": 3752,
      "##ቀመ": 3753,
      "##ቀቅ": 3754,
      "##ቀድ": 3755,
      "##ረተ": 3756,
      "##ረድ": 3757,
      "##በጣ": 3758,
      "##መሰ": 3759,
      "##መነ": 3760,
      "##ግግር": 3761,
      "##ቧን": 3762,
      "##ደድ": 3763,
      "##ዘን": 3764,
      "##ዋንዳ": 3765,
      "##ሙበት": 3766,
      "##ቶሪ": 3767,
      "##ቶቹን": 3768,
      "##ቃሽ": 3769,
      "##ቃቄ": 3770,
      "##ተት": 3771,
      "##ናቸው": 3772,
      "##ሻለ": 3773,
      "##ቅለ": 3774,
      "##ቅላት": 3775,
      "##ቅያኖ": 3776,
      "##ያቸው": 3777,
      "##ጋጠ": 3778,
      "##ነሰ": 3779,
      "##ነፃ": 3780,
      "##ነቶች": 3781,
      "##ባይል": 3782,
      "##ድያ": 3783,
      "##ድሪ": 3784,
      "##ድሩ": 3785,
      "##ድሶ": 3786,
      "##ድቋል": 3787,
      "##ከረ": 3788,
      "##ከሩ": 3789,
      "##ከፍ": 3790,
      "##ከበር": 3791,
      "##ሪት": 3792,
      "##ሪፍ": 3793,
      "##ቪስ": 3794,
      "##ቁር": 3795,
      "##ክብካቤ": 3796,
      "##ክፈቻ": 3797,
      "##ዲህ": 3798,
      "##ኛል": 3799,
      "##ሎን": 3800,
      "##ጂንግ": 3801,
      "##ኒስ": 3802,
      "##ፉን": 3803,
      "##ሽት": 3804,
      "##ሽኖች": 3805,
      "##ሥር": 3806,
      "##ቲከ": 3807,
      "##ኑኤል": 3808,
      "##ቴር": 3809,
      "##ፋለች": 3810,
      "##500": 3811,
      "##ዛው": 3812,
      "##ዛል": 3813,
      "##ዛማ": 3814,
      "##ዩን": 3815,
      "##ዩብ": 3816,
      "##ጉል": 3817,
      "##40": 3818,
      "##ጪው": 3819,
      "##ጊያ": 3820,
      "##ፎች": 3821,
      "##ዌላ": 3822,
      "##94": 3823,
      "##ኳር": 3824,
      "እንክብካቤ": 3825,
      "የሚፈ": 3826,
      "የሚሆነ": 3827,
      "የሚመራ": 3828,
      "የሚረዳ": 3829,
      "የሚሆኑት": 3830,
      "የተበ": 3831,
      "የተደረገው": 3832,
      "የተወለ": 3833,
      "የአፈር": 3834,
      "የአትሌቲክስ": 3835,
      "በመቀ": 3836,
      "በመሆኑ": 3837,
      "በመባል": 3838,
      "በመቅረ": 3839,
      "በመጋቢት": 3840,
      "በተመ": 3841,
      "በተቃ": 3842,
      "በተገናኘ": 3843,
      "የመስ": 3844,
      "የመግ": 3845,
      "የመንግሥት": 3846,
      "እንዲሰጡ": 3847,
      "ለመስ": 3848,
      "ለመወ": 3849,
      "ለመሆን": 3850,
      "ለመጠቀም": 3851,
      "ለመጀመር": 3852,
      "ለመፍታት": 3853,
      "ለማቆም": 3854,
      "ለማዘጋጀት": 3855,
      "ለማጥፋት": 3856,
      "ለማምጣት": 3857,
      "##ችንን": 3858,
      "##ላይን": 3859,
      "በማሳ": 3860,
      "በማዘጋጀት": 3861,
      "##በርት": 3862,
      "##ጀመርያ": 3863,
      "ምርቶችን": 3864,
      "ኢትዮጵያዊው": 3865,
      "##በረበት": 3866,
      "እንደሚሆን": 3867,
      "እንዳገኘ": 3868,
      "እንዳላቸው": 3869,
      "##ስተካ": 3870,
      "##ስተን": 3871,
      "የእስ": 3872,
      "የእና": 3873,
      "የእሳት": 3874,
      "አቀባይ": 3875,
      "አቀረቡ": 3876,
      "አቀፋዊ": 3877,
      "##ዚህም": 3878,
      "የሚያደርገውን": 3879,
      "ከተማዋ": 3880,
      "##ልጣኑ": 3881,
      "መንሸራተ": 3882,
      "አውቶ": 3883,
      "ግንባር": 3884,
      "ድርቅ": 3885,
      "ከአውሮፓ": 3886,
      "አበባን": 3887,
      "መስጠ": 3888,
      "የነበሩት": 3889,
      "መካከለኛ": 3890,
      "የውጪ": 3891,
      "ጠቅላላ": 3892,
      "2013": 3893,
      "2016": 3894,
      "አንድነት": 3895,
      "አደገኛ": 3896,
      "በሰው": 3897,
      "በሰፊው": 3898,
      "የግማሽ": 3899,
      "ይህን": 3900,
      "ይህንን": 3901,
      "##ስቲክስ": 3902,
      "##መለክ": 3903,
      "አልፎ": 3904,
      "የስነ": 3905,
      "የስዊድን": 3906,
      "ዓመቷ": 3907,
      "##ታዊው": 3908,
      "አሳል": 3909,
      "የወን": 3910,
      "እየተካሄደ": 3911,
      "ወረዳ": 3912,
      "አብዛ": 3913,
      "የካር": 3914,
      "በእርስ": 3915,
      "የገበያ": 3916,
      "ማዕከላዊ": 3917,
      "ተብሏል": 3918,
      "እድሎችን": 3919,
      "አመቱ": 3920,
      "ቴክኖሎጂን": 3921,
      "በታሪክ": 3922,
      "አየርላንድ": 3923,
      "##ሳተፋ": 3924,
      "ሀገራዊ": 3925,
      "የብሔራዊ": 3926,
      "የዩክሬን": 3927,
      "የሆኑትን": 3928,
      "እንዲያገኙ": 3929,
      "የሶማሌ": 3930,
      "##ገለግሉ": 3931,
      "በካናዳ": 3932,
      "##ቲካን": 3933,
      "##ጠበቁ": 3934,
      "##ፈልጋ": 3935,
      "##ፈልጉ": 3936,
      "ጥናትና": 3937,
      "##ደረሰው": 3938,
      "የትራ": 3939,
      "የፍርድ": 3940,
      "የቴክኖሎጂ": 3941,
      "የቴክኒክ": 3942,
      "ብሔር": 3943,
      "ተመዝግ": 3944,
      "ሲያደርጉ": 3945,
      "ተከብሯል": 3946,
      "የንግድና": 3947,
      "ተጠያቂ": 3948,
      "##ቨስትመንት": 3949,
      "በብሔራዊ": 3950,
      "##ወጣው": 3951,
      "ህዝበ": 3952,
      "ከሰሜን": 3953,
      "በጥሩ": 3954,
      "በኮቪድ": 3955,
      "ገብተዋል": 3956,
      "##ሞክራሲያዊ": 3957,
      "ያደርገዋል": 3958,
      "##ፈረደ": 3959,
      "##ኤፍኤ": 3960,
      "ሆስፒታ": 3961,
      "በበኩ": 3962,
      "ደርሷል": 3963,
      "የኢንዱስትሪ": 3964,
      "እንደገለጹት": 3965,
      "ኮንጎ": 3966,
      "ድምጽ": 3967,
      "ድምፅ": 3968,
      "##ለቀቁ": 3969,
      "ተቃዋሚ": 3970,
      "መኖሪያ": 3971,
      "ርዕሰ": 3972,
      "ተሸላሚ": 3973,
      "ጣቢያዎች": 3974,
      "##ሰጣቸው": 3975,
      "##ከታታይ": 3976,
      "በሶስት": 3977,
      "##ጥፍቶ": 3978,
      "##ከናወን": 3979,
      "የተቃውሞ": 3980,
      "በደቡባዊ": 3981,
      "በሜክሲኮ": 3982,
      "ስትራቴጂ": 3983,
      "አዘጋጅ": 3984,
      "የናሳ": 3985,
      "አሸንፏል": 3986,
      "ኤችአይቪ": 3987,
      "##ካተት": 3988,
      "መሠረት": 3989,
      "ተመርጠዋል": 3990,
      "ጀርመን": 3991,
      "##ሚካኤል": 3992,
      "##ክተሩ": 3993,
      "ተራራ": 3994,
      "አዛዥ": 3995,
      "ክለብ": 3996,
      "የሜክሲኮ": 3997,
      "ፈጣን": 3998,
      "##ትናም": 3999,
      "በመካከለኛው": 4000,
      "እንዳስታወቀው": 4001,
      "የታቀደው": 4002,
      "ክርስቲያ": 4003,
      "ማይክል": 4004,
      "ማረፊያ": 4005,
      "ተፅእኖ": 4006,
      "የበረራ": 4007,
      "ያቀረበ": 4008,
      "ዲፕሎማሲያዊ": 4009,
      "##ዳዳሪ": 4010,
      "##ግዚቢ": 4011,
      "በመምጣ": 4012,
      "መታሰቢያ": 4013,
      "ተኩስ": 4014,
      "ተመረጠ": 4015,
      "ጠየቀ": 4016,
      "##ቫይረስ": 4017,
      "##ሽከርካሪዎች": 4018,
      "የበሽታ": 4019,
      "አውሮፕላኖች": 4020,
      "ለሶስተኛ": 4021,
      "መጀመሩን": 4022,
      "ተገድለዋል": 4023,
      "ትክክለኛ": 4024,
      "ያደረጉትን": 4025,
      "ጥንቃቄ": 4026,
      "##ደናቂ": 4027,
      "በመዲናዋ": 4028,
      "ለመግታት": 4029,
      "ወረርሽኙን": 4030,
      "ህጻናት": 4031,
      "መፍትሄ": 4032,
      "ተጀምሯል": 4033,
      "ኦሊምፒክ": 4034,
      "ዘላቂ": 4035,
      "የሁለቱን": 4036,
      "ጋብቻ": 4037,
      "ፉትቦል": 4038,
      "##ረሰቦችና": 4039,
      "##ክሌር": 4040,
      "ተግዳሮቶች": 4041,
      "ረቂቅ": 4042,
      "በይፋ": 4043,
      "በሆንግ": 4044,
      "በጦርነት": 4045,
      "ተዋልዶ": 4046,
      "ይሆናሉ": 4047,
      "ፖለቲከ": 4048,
      "##ሬዳዋ": 4049,
      "02": 4050,
      "13": 4051,
      "51": 4052,
      "55": 4053,
      "52": 4054,
      "800": 4055,
      "ሀሳብ": 4056,
      "ሁከት": 4057,
      "ሂው": 4058,
      "ሃም": 4059,
      "ሃር": 4060,
      "ሃሪ": 4061,
      "ህጎች": 4062,
      "ህብረተሰብ": 4063,
      "ሆል": 4064,
      "ለሳ": 4065,
      "ለሰ": 4066,
      "ለት": 4067,
      "ለን": 4068,
      "ለጎ": 4069,
      "ለሙ": 4070,
      "ለሀ": 4071,
      "ለቀው": 4072,
      "ለገበያ": 4073,
      "ሊፈ": 4074,
      "ሊደረግ": 4075,
      "ልጆች": 4076,
      "ልውው": 4077,
      "ሐምሌ": 4078,
      "ሕፃ": 4079,
      "መቅ": 4080,
      "መጋ": 4081,
      "መነ": 4082,
      "መፍ": 4083,
      "መፅ": 4084,
      "መስራ": 4085,
      "መነሳ": 4086,
      "መከላከል": 4087,
      "መጀመር": 4088,
      "መገል": 4089,
      "መሆኗ": 4090,
      "ሚዲያ": 4091,
      "ማብ": 4092,
      "ማድረ": 4093,
      "ማጣሪያ": 4094,
      "ምድር": 4095,
      "ምሽት": 4096,
      "ሞቃ": 4097,
      "ረዳ": 4098,
      "ሩሲያ": 4099,
      "ሬሳ": 4100,
      "ሰላም": 4101,
      "ሰሜናዊ": 4102,
      "ሲኒማ": 4103,
      "ሲነፃ": 4104,
      "ሳል": 4105,
      "ሴኔ": 4106,
      "ስልጠና": 4107,
      "ሽፋን": 4108,
      "ሽግግር": 4109,
      "ቀነ": 4110,
      "ቀደም": 4111,
      "ቁጥ": 4112,
      "ቅጠ": 4113,
      "ቅዱስ": 4114,
      "በዝ": 4115,
      "በጨ": 4116,
      "በ3": 4117,
      "በቤት": 4118,
      "በለጠ": 4119,
      "በከተማ": 4120,
      "ባር": 4121,
      "ባስ": 4122,
      "ባንድ": 4123,
      "ቤል": 4124,
      "ቤቲ": 4125,
      "ቤቶችን": 4126,
      "ብሄ": 4127,
      "ብቁ": 4128,
      "ብለው": 4129,
      "ብሮድ": 4130,
      "ቪዲዮ": 4131,
      "ተጽ": 4132,
      "ተይ": 4133,
      "ተለ": 4134,
      "ተኮ": 4135,
      "ተይዘ": 4136,
      "ተረጋግጧል": 4137,
      "ታህሳስ": 4138,
      "ታዳጊ": 4139,
      "ትሬ": 4140,
      "ትሪ": 4141,
      "ቶን": 4142,
      "ቻናል": 4143,
      "ነብዩ": 4144,
      "ንፁ": 4145,
      "አቡ": 4146,
      "አሊ": 4147,
      "አቁ": 4148,
      "አፅ": 4149,
      "አንዳ": 4150,
      "አላማ": 4151,
      "አበረታ": 4152,
      "አፕል": 4153,
      "ኢራቅ": 4154,
      "ኤሌክትሪክ": 4155,
      "ኤርትራ": 4156,
      "ኤድስ": 4157,
      "ኤግዚቢ": 4158,
      "እል": 4159,
      "እፅ": 4160,
      "ከጎ": 4161,
      "ከዋ": 4162,
      "ከጨ": 4163,
      "ከ3": 4164,
      "ከሶ": 4165,
      "ከ8": 4166,
      "ከቻይና": 4167,
      "ክሊ": 4168,
      "ክርክር": 4169,
      "ኮስት": 4170,
      "ኮሌጅ": 4171,
      "ወገ": 4172,
      "ወሰን": 4173,
      "ዋል": 4174,
      "ውጥረት": 4175,
      "ውጊያ": 4176,
      "ዓላማ": 4177,
      "ዘፋ": 4178,
      "ዘጠኝ": 4179,
      "ዜማ": 4180,
      "ዝውው": 4181,
      "የር": 4182,
      "የዱ": 4183,
      "የቫ": 4184,
      "የቪ": 4185,
      "የጂ": 4186,
      "የፒ": 4187,
      "የቲ": 4188,
      "የዛ": 4189,
      "የሸ": 4190,
      "የሳተ": 4191,
      "የዘር": 4192,
      "የጀመረው": 4193,
      "የፕሬዚ": 4194,
      "የጀርመን": 4195,
      "ዩክሬን": 4196,
      "ያደረገው": 4197,
      "ያገለ": 4198,
      "ይረ": 4199,
      "ይታ": 4200,
      "ይሳተፋ": 4201,
      "ዲሲ": 4202,
      "ዳዊት": 4203,
      "ገበ": 4204,
      "ጊኒ": 4205,
      "ጌታቸው": 4206,
      "ጌትስ": 4207,
      "ግጥ": 4208,
      "ግቢ": 4209,
      "ግሽ": 4210,
      "ጠቃ": 4211,
      "ጠባ": 4212,
      "ጣሊያን": 4213,
      "ጥፋ": 4214,
      "ጥቂት": 4215,
      "ጨር": 4216,
      "ጨረቃ": 4217,
      "ጭን": 4218,
      "ጭነት": 4219,
      "ፅህፈት": 4220,
      "ፈን": 4221,
      "ፈፅ": 4222,
      "ፊት": 4223,
      "ፋውን": 4224,
      "ፍሬ": 4225,
      "ፎረም": 4226,
      "##ሚየር": 4227,
      "##ውሉ": 4228,
      "##ልፈ": 4229,
      "##ሳቁ": 4230,
      "##ሳሽ": 4231,
      "##ሳቸው": 4232,
      "##ካም": 4233,
      "##ምቦ": 4234,
      "##ሰጠው": 4235,
      "##ሰማሩ": 4236,
      "##ራው": 4237,
      "##ጽኦ": 4238,
      "##ትላ": 4239,
      "##ትከል": 4240,
      "##ንጎ": 4241,
      "##ንተ": 4242,
      "##ንጋ": 4243,
      "##ንዚ": 4244,
      "##ንኮ": 4245,
      "##ንሳስ": 4246,
      "##ንቢኤ": 4247,
      "##ዳው": 4248,
      "##ዳቤ": 4249,
      "##ይካ": 4250,
      "##ይቶ": 4251,
      "##ይተዋል": 4252,
      "##ይላንድ": 4253,
      "##ገዱ": 4254,
      "##አር": 4255,
      "##ለፍ": 4256,
      "##ማዊ": 4257,
      "##ማውያን": 4258,
      "##ችት": 4259,
      "##ርታ": 4260,
      "##ርሙ": 4261,
      "##ርጊ": 4262,
      "##ርላማ": 4263,
      "##ርዳታ": 4264,
      "##ላከተ": 4265,
      "##ስክ": 4266,
      "##ዴግ": 4267,
      "##ዴሽን": 4268,
      "##ሊኮ": 4269,
      "##ሊየን": 4270,
      "##ሊባን": 4271,
      "##ዝነስ": 4272,
      "##ዝቦል": 4273,
      "##ጀምር": 4274,
      "##ጀንቲ": 4275,
      "##ሮጀ": 4276,
      "##ሮሞ": 4277,
      "##ዎቻቸውን": 4278,
      "##ቀደ": 4279,
      "##ቀቁ": 4280,
      "##ረረ": 4281,
      "##መኑ": 4282,
      "##ቸር": 4283,
      "##ፓል": 4284,
      "##ደይ": 4285,
      "##ደሮች": 4286,
      "##ዘገ": 4287,
      "##ዋር": 4288,
      "##ዋታው": 4289,
      "##ጠለ": 4290,
      "##ጠብ": 4291,
      "##ጠጋ": 4292,
      "##ሙዝ": 4293,
      "##ሙኒኬሽን": 4294,
      "##ጣል": 4295,
      "##ጣኔ": 4296,
      "##ጨመር": 4297,
      "##ኝተው": 4298,
      "##ተኩ": 4299,
      "##ተኝነት": 4300,
      "##ናሚ": 4301,
      "##ዊዘርላንድ": 4302,
      "##ጥታው": 4303,
      "##ጥቷል": 4304,
      "##ቅን": 4305,
      "##ቅላይ": 4306,
      "##ቋረጥ": 4307,
      "##ሲል": 4308,
      "##ያተ": 4309,
      "##ጋለች": 4310,
      "##ነደ": 4311,
      "##ነቅ": 4312,
      "##ነዋል": 4313,
      "##ባቸዋል": 4314,
      "##ቫኪያ": 4315,
      "##ድብ": 4316,
      "##ድድሩ": 4317,
      "##ከበሩ": 4318,
      "##ሪው": 4319,
      "##ሪቱ": 4320,
      "##ኤን": 4321,
      "##ኖቬ": 4322,
      "##ሩት": 4323,
      "##ሩስ": 4324,
      "##ዶኔ": 4325,
      "##ክቶ": 4326,
      "##ክሎ": 4327,
      "##ክራል": 4328,
      "##ዲንግ": 4329,
      "##ዚል": 4330,
      "##ሎቫኪያ": 4331,
      "##እራ": 4332,
      "##ቢስ": 4333,
      "##ሃይ": 4334,
      "##ሃዊ": 4335,
      "##ኒቲ": 4336,
      "##ህአ": 4337,
      "##የስ": 4338,
      "##የሁ": 4339,
      "##የውን": 4340,
      "##ሱስ": 4341,
      "##ቆይ": 4342,
      "##ጦችን": 4343,
      "##ሽታው": 4344,
      "##ቲቭ": 4345,
      "##ሴሽን": 4346,
      "##ቴን": 4347,
      "##ፋይ": 4348,
      "##ፋሮ": 4349,
      "##ፋሪዎች": 4350,
      "##ፋሰስ": 4351,
      "##ዛወ": 4352,
      "##ጉት": 4353,
      "##ሸባብ": 4354,
      "##ፀው": 4355,
      "##ፀድ": 4356,
      "##ጾች": 4357,
      "##98": 4358,
      "##ኦን": 4359,
      "##ዓመቱ": 4360,
      "##ዑዲ": 4361,
      "ላይም": 4362,
      "የሚመ": 4363,
      "የሚደረገው": 4364,
      "የሚችሉ": 4365,
      "የሚሰጥ": 4366,
      "የሚደርስ": 4367,
      "የሚደረገውን": 4368,
      "የተዋ": 4369,
      "የተያዘ": 4370,
      "የተካሄደው": 4371,
      "የተቋቋ": 4372,
      "የተጀመረው": 4373,
      "የተለየ": 4374,
      "የተሰራው": 4375,
      "የተነደ": 4376,
      "የአንድ": 4377,
      "የአጥፍቶ": 4378,
      "አስቆ": 4379,
      "አስደናቂ": 4380,
      "በመን": 4381,
      "በመደገፍ": 4382,
      "በመሳተፍ": 4383,
      "እንደሆኑ": 4384,
      "እንደዚህ": 4385,
      "እንደዘገበ": 4386,
      "እንደምታ": 4387,
      "በአራት": 4388,
      "በአንዳንድ": 4389,
      "በአፋር": 4390,
      "በተገኙ": 4391,
      "በተመረ": 4392,
      "በተከሰተ": 4393,
      "የመር": 4394,
      "የመድ": 4395,
      "የመጡ": 4396,
      "የመሪዎች": 4397,
      "የመከላከል": 4398,
      "የመኪና": 4399,
      "የመጀመርያ": 4400,
      "##ደረጃ": 4401,
      "እንዲቀ": 4402,
      "ለመለ": 4403,
      "ለመቆጣጠር": 4404,
      "ለማስፋ": 4405,
      "ለማስተዋወቅ": 4406,
      "ለማጎልበት": 4407,
      "ለማበረታታት": 4408,
      "ባለሀ": 4409,
      "በማሰብ": 4410,
      "በማግኘት": 4411,
      "ከተከሰተ": 4412,
      "ከተሞችን": 4413,
      "ሚኒስተር": 4414,
      "##ለውም": 4415,
      "##ደረገችው": 4416,
      "##ንስሳት": 4417,
      "##ታወቁ": 4418,
      "##ታወቀው": 4419,
      "##ራዊቱ": 4420,
      "የማያ": 4421,
      "##ባቢያ": 4422,
      "##ስተዳ": 4423,
      "##ስተላለ": 4424,
      "የእንስሳት": 4425,
      "አቀረበ": 4426,
      "የሚያደርጉ": 4427,
      "አውጪ": 4428,
      "አውሏል": 4429,
      "ከአሜሪካ": 4430,
      "ከአፍሪካ": 4431,
      "ያለፈ": 4432,
      "አስተማሪ": 4433,
      "አስተላለ": 4434,
      "አስተባባሪ": 4435,
      "መስኖ": 4436,
      "መስጠት": 4437,
      "የምርት": 4438,
      "የውድድር": 4439,
      "ጠቅሰዋል": 4440,
      "2010": 4441,
      "2015": 4442,
      "##ካሄዱ": 4443,
      "በሰሜናዊ": 4444,
      "ስርጭትን": 4445,
      "##መለሰ": 4446,
      "በምእራ": 4447,
      "##ብረው": 4448,
      "##ከሰቱ": 4449,
      "የስልጣን": 4450,
      "##ዘጋጅ": 4451,
      "አይደ": 4452,
      "አንጀ": 4453,
      "ወርልድ": 4454,
      "የባለ": 4455,
      "የባሕር": 4456,
      "መርከ": 4457,
      "##ዳንቱ": 4458,
      "የካቲት": 4459,
      "አገልግሎቶችን": 4460,
      "በእጥፍ": 4461,
      "ኮሪያን": 4462,
      "የገቡ": 4463,
      "የኮሮና": 4464,
      "ተወላ": 4465,
      "ተወስ": 4466,
      "እያደገ": 4467,
      "አመታዊ": 4468,
      "ወንዶች": 4469,
      "ለሚገኙ": 4470,
      "ለሚቆጠሩ": 4471,
      "ገለፃ": 4472,
      "መልሶ": 4473,
      "##ታደግ": 4474,
      "##ታደራዊ": 4475,
      "የብራ": 4476,
      "ዳይሬክተሩ": 4477,
      "በመቶዎች": 4478,
      "በኢራን": 4479,
      "በኢቦላ": 4480,
      "የሶማሊያ": 4481,
      "ባንዲ": 4482,
      "የሀይማኖት": 4483,
      "##ምንቱ": 4484,
      "##ንሰን": 4485,
      "በካሊፎርኒያ": 4486,
      "አሜሪካዊ": 4487,
      "የሙስና": 4488,
      "የኤች": 4489,
      "የኤሌክትሪክ": 4490,
      "በከባድ": 4491,
      "በዓመት": 4492,
      "##ገደለ": 4493,
      "ሆኖም": 4494,
      "በቀላሉ": 4495,
      "##ደረሰባቸው": 4496,
      "የትብብር": 4497,
      "የፍልስጤም": 4498,
      "##ኒያት": 4499,
      "የኦሮሞ": 4500,
      "ያስች": 4501,
      "መቀነስ": 4502,
      "ቤተሰብ": 4503,
      "ብሔረሰቦችና": 4504,
      "##ክሲዮን": 4505,
      "እንቅስቃሴዎችን": 4506,
      "መረጃን": 4507,
      "ኃላፊዎች": 4508,
      "በ2011": 4509,
      "በ2016": 4510,
      "ተጠቁሟል": 4511,
      "አማካ": 4512,
      "አማራ": 4513,
      "አማርኛ": 4514,
      "##ስማማ": 4515,
      "ተቀብ": 4516,
      "ተቀባይ": 4517,
      "አድና": 4518,
      "በትግራይ": 4519,
      "በየዓመቱ": 4520,
      "የጠቅላይ": 4521,
      "በባለ": 4522,
      "ኃይለ": 4523,
      "##ላለፍ": 4524,
      "መድኃ": 4525,
      "አግኝቷል": 4526,
      "ጋዜጠኛ": 4527,
      "##ጠናቀቅ": 4528,
      "ውድድሩን": 4529,
      "ሥርዓ": 4530,
      "ሰርጥ": 4531,
      "ተዋናይ": 4532,
      "አክቲ": 4533,
      "ያሳያል": 4534,
      "ደርሶ": 4535,
      "ደሴቶች": 4536,
      "##ፈንቅለ": 4537,
      "በአማካይ": 4538,
      "መጠጥ": 4539,
      "ተስማማ": 4540,
      "##ወሰደ": 4541,
      "##ወሰዱ": 4542,
      "ነዋሪዎችን": 4543,
      "የሥነ": 4544,
      "አገሪቷ": 4545,
      "ምንጭ": 4546,
      "ኢንስቲትዩቱ": 4547,
      "የፖሊዮ": 4548,
      "ታላቅ": 4549,
      "##ስተናግ": 4550,
      "ኮርፖሬት": 4551,
      "ስኬታማ": 4552,
      "በጋዛ": 4553,
      "በሃገሪቱ": 4554,
      "ቴሌቪዥን": 4555,
      "የተመረጡት": 4556,
      "ኢንተርፕራይ": 4557,
      "ኢንተርናሽ": 4558,
      "ልምድ": 4559,
      "ተፈራር": 4560,
      "ተፈራረሙ": 4561,
      "የኩባንያው": 4562,
      "ዲዛይን": 4563,
      "##ለቅለቅ": 4564,
      "ቀጥሏል": 4565,
      "የሳይንስ": 4566,
      "የተደረገውን": 4567,
      "በመላው": 4568,
      "አምራቾች": 4569,
      "ሰጥተዋል": 4570,
      "ፍራንሲስ": 4571,
      "በተባበሩት": 4572,
      "ኢትዮጵያዊቷ": 4573,
      "አሳስቧል": 4574,
      "መሞታቸውን": 4575,
      "መሸፈ": 4576,
      "ሰላጤ": 4577,
      "ቀጣይነት": 4578,
      "የሚገመት": 4579,
      "ባለቤትነት": 4580,
      "እንደሚያስፈልግ": 4581,
      "ክርስቲያን": 4582,
      "ሙዚቀ": 4583,
      "ሙዚየም": 4584,
      "ማቀዱን": 4585,
      "ተቆጣጣ": 4586,
      "ትርኢ": 4587,
      "አመራር": 4588,
      "አመራሮች": 4589,
      "የዋጋ": 4590,
      "ጥናቱ": 4591,
      "ጳጳስ": 4592,
      "ፀሃይ": 4593,
      "ፀሃፊ": 4594,
      "አስከሬ": 4595,
      "መቃብር": 4596,
      "ማልት": 4597,
      "በቶኪዮ": 4598,
      "በዲሞክራቲክ": 4599,
      "ውዝግብ": 4600,
      "ደብዳቤ": 4601,
      "##ፈለግ": 4602,
      "በሚቀጥለው": 4603,
      "ስርዓቱ": 4604,
      "ተገደለ": 4605,
      "በግንቦት": 4606,
      "የቴሌኮም": 4607,
      "መኮንን": 4608,
      "ቅድመ": 4609,
      "ለመክፈት": 4610,
      "አብዮት": 4611,
      "መጥለቅለቅ": 4612,
      "በዚሁ": 4613,
      "ኮሮናቫይረስ": 4614,
      "ደራሲ": 4615,
      "##ላከው": 4616,
      "##ኒስቴሩ": 4617,
      "በተከሰተው": 4618,
      "ባለመቻሉ": 4619,
      "በማዕከላዊ": 4620,
      "እስረኞች": 4621,
      "መስፋፋት": 4622,
      "የተመሰረተው": 4623,
      "ግለሰቦችን": 4624,
      "አስጠንቅቋል": 4625,
      "ምዝገባ": 4626,
      "ቀጠሮ": 4627,
      "ብቸኛ": 4628,
      "ናይጄሪያ": 4629,
      "የኑክሌር": 4630,
      "ያካተተ": 4631,
      "ደህንነቱ": 4632,
      "ግዙፍ": 4633,
      "##ቅያኖስ": 4634,
      "የመግባቢያ": 4635,
      "የእናቶች": 4636,
      "መንሸራተት": 4637,
      "የወንጀል": 4638,
      "ወረዳዎች": 4639,
      "በበኩላቸው": 4640,
      "በመምጣቱ": 4641,
      "መስራች": 4642,
      "መገልገ": 4643,
      "ብሮድካ": 4644,
      "ይረዳል": 4645,
      "ጠቃሚ": 4646,
      "ፋውንዴሽን": 4647,
      "##ሊኮፕ": 4648,
      "##ኖቬሽን": 4649,
      "##ዶኔዥያ": 4650,
      "እንደዘገበው": 4651,
      "በተገኙበት": 4652,
      "ኢንተርናሽናል": 4653,
      "31": 4654,
      "34": 4655,
      "38": 4656,
      "41": 4657,
      "75": 4658,
      "78": 4659,
      "90": 4660,
      "ሀሳ": 4661,
      "ሀይማኖ": 4662,
      "ሃገር": 4663,
      "ህመ": 4664,
      "ህብረተሰቡ": 4665,
      "ሆፕ": 4666,
      "ለረ": 4667,
      "ለታ": 4668,
      "ለባ": 4669,
      "ለ1": 4670,
      "ለሚያ": 4671,
      "ለህል": 4672,
      "ለብዙ": 4673,
      "ሊደርስ": 4674,
      "ሊሚት": 4675,
      "ላም": 4676,
      "ልክ": 4677,
      "ልብስ": 4678,
      "ሕገ": 4679,
      "ሕይወት": 4680,
      "መረ": 4681,
      "መጣ": 4682,
      "መና": 4683,
      "መክ": 4684,
      "መመረ": 4685,
      "መከሰ": 4686,
      "መመር": 4687,
      "መዲና": 4688,
      "መዝገብ": 4689,
      "መጋቢት": 4690,
      "መረብ": 4691,
      "መገናኛ": 4692,
      "መፈፀም": 4693,
      "ሙስሊ": 4694,
      "ማዳ": 4695,
      "ማጥ": 4696,
      "ማኅ": 4697,
      "ማስፋ": 4698,
      "ማጥፋት": 4699,
      "ማጠናከር": 4700,
      "ምኞ": 4701,
      "ምዕራ": 4702,
      "ምስራቃዊ": 4703,
      "ምግባር": 4704,
      "ሞተዋል": 4705,
      "ሥዕ": 4706,
      "ረቡ": 4707,
      "ረዳት": 4708,
      "ሮኬ": 4709,
      "ሮበርት": 4710,
      "ሰለ": 4711,
      "ሰጡ": 4712,
      "ሰዓ": 4713,
      "ሰሪዎች": 4714,
      "ሲሆኑ": 4715,
      "ሲሰራ": 4716,
      "ሳላ": 4717,
      "ሳሙ": 4718,
      "ሴኔት": 4719,
      "ስን": 4720,
      "ስላ": 4721,
      "ስቶ": 4722,
      "ስፖር": 4723,
      "ስልክ": 4724,
      "ስሜት": 4725,
      "ሶል": 4726,
      "ሶፊያ": 4727,
      "ሶማሊያ": 4728,
      "ሸለ": 4729,
      "ሹመት": 4730,
      "ሽር": 4731,
      "ቀሳ": 4732,
      "ቀይ": 4733,
      "ቀለ": 4734,
      "ቀር": 4735,
      "ቀደ": 4736,
      "ቀጠና": 4737,
      "ቀላል": 4738,
      "ቀዳሚ": 4739,
      "ቁሳቁ": 4740,
      "ቅጣት": 4741,
      "በፈ": 4742,
      "በሄ": 4743,
      "በዳ": 4744,
      "በቫ": 4745,
      "በሪ": 4746,
      "በሩ": 4747,
      "በፒ": 4748,
      "በጅ": 4749,
      "በቺ": 4750,
      "በጃ": 4751,
      "በጸ": 4752,
      "በ7": 4753,
      "በቬ": 4754,
      "በሳይ": 4755,
      "በደረሰበት": 4756,
      "በዛሬ": 4757,
      "በጊዜ": 4758,
      "በጠቅላይ": 4759,
      "በሌሎች": 4760,
      "በጄኔ": 4761,
      "ቢን": 4762,
      "ባይ": 4763,
      "ባዘጋጀው": 4764,
      "ባወጣው": 4765,
      "ባደረገችው": 4766,
      "ባስተላለ": 4767,
      "ብድር": 4768,
      "ቦይ": 4769,
      "ተዳ": 4770,
      "ተጎ": 4771,
      "ተጥ": 4772,
      "ተረት": 4773,
      "ተጠር": 4774,
      "ተፈር": 4775,
      "ተነሱ": 4776,
      "ተለቀ": 4777,
      "ተያይ": 4778,
      "ተረጋገጠ": 4779,
      "ታው": 4780,
      "ቴክ": 4781,
      "ቴክሳስ": 4782,
      "ቴድሮስ": 4783,
      "ትግራይ": 4784,
      "ትገኛ": 4785,
      "ቼክ": 4786,
      "ችሎ": 4787,
      "ናሳ": 4788,
      "ንፋስ": 4789,
      "አጀ": 4790,
      "አቢ": 4791,
      "አፋ": 4792,
      "አሶ": 4793,
      "አለው": 4794,
      "አድን": 4795,
      "አነሳ": 4796,
      "አሰራ": 4797,
      "አረጋገጠ": 4798,
      "አቆሙ": 4799,
      "ኢም": 4800,
      "ኢፒ": 4801,
      "ኢነር": 4802,
      "ኤፒ": 4803,
      "ኤሌክትሮኒክስ": 4804,
      "እጥፍ": 4805,
      "ኦሮሚያ": 4806,
      "ከሳ": 4807,
      "ከም": 4808,
      "ከት": 4809,
      "ከለ": 4810,
      "ከሃ": 4811,
      "ከቦ": 4812,
      "ከኔ": 4813,
      "ከ7": 4814,
      "ከጥር": 4815,
      "ከቤት": 4816,
      "ከዚያ": 4817,
      "ከጀመረ": 4818,
      "ከ50": 4819,
      "ከሆኑት": 4820,
      "ከጋና": 4821,
      "ኪሳ": 4822,
      "ካሮ": 4823,
      "ካውን": 4824,
      "ካለፈው": 4825,
      "ክም": 4826,
      "ክብር": 4827,
      "ወስጥ": 4828,
      "ወባን": 4829,
      "ወዲህ": 4830,
      "ውስ": 4831,
      "ውቅያኖስ": 4832,
      "ዕቅ": 4833,
      "ዕለት": 4834,
      "ዘፈን": 4835,
      "ዞኖች": 4836,
      "የሄ": 4837,
      "የቶ": 4838,
      "የጫ": 4839,
      "የቁ": 4840,
      "የሂ": 4841,
      "የሁ": 4842,
      "የቺ": 4843,
      "የ5": 4844,
      "የፔ": 4845,
      "የለንደን": 4846,
      "ዩሮ": 4847,
      "ዩኔስኮ": 4848,
      "ያለች": 4849,
      "ያገኘ": 4850,
      "ያላት": 4851,
      "ያመጣ": 4852,
      "ያካት": 4853,
      "ይበ": 4854,
      "ይቆ": 4855,
      "ይቀጥ": 4856,
      "ይሁን": 4857,
      "ይጫወ": 4858,
      "ይመስ": 4859,
      "ዮና": 4860,
      "ደስታ": 4861,
      "ዲያስፖራ": 4862,
      "ዳዋ": 4863,
      "ዴሞክራሲያዊ": 4864,
      "ጀመሩ": 4865,
      "ጃዝ": 4866,
      "ጆንግ": 4867,
      "ገጽ": 4868,
      "ገቡ": 4869,
      "ገና": 4870,
      "ገሞ": 4871,
      "ገዥ": 4872,
      "ገፅ": 4873,
      "ገፆ": 4874,
      "ገትር": 4875,
      "ጉሙዝ": 4876,
      "ግዢ": 4877,
      "ግርማ": 4878,
      "ግዛው": 4879,
      "ግደይ": 4880,
      "ጎልድ": 4881,
      "ጠፍ": 4882,
      "ጠፊ": 4883,
      "ጣል": 4884,
      "ጨረታ": 4885,
      "ጫማ": 4886,
      "ጭምር": 4887,
      "ጳው": 4888,
      "ጽሕ": 4889,
      "ፈር": 4890,
      "ፊፋ": 4891,
      "ፍቃ": 4892,
      "ፍሎ": 4893,
      "ፍትህ": 4894,
      "ፎቶ": 4895,
      "ፓንዳ": 4896,
      "ፖፕ": 4897,
      "ፖር": 4898,
      "##ልዝ": 4899,
      "##ሳካ": 4900,
      "##ሳች": 4901,
      "##ሳለች": 4902,
      "##ሳሌም": 4903,
      "##ካጎ": 4904,
      "##ካኤል": 4905,
      "##ምም": 4906,
      "##ምቤ": 4907,
      "##ፕስ": 4908,
      "##ፕቲክ": 4909,
      "##ሰማ": 4910,
      "##ሰደ": 4911,
      "##ሰሉ": 4912,
      "##ሰንግ": 4913,
      "##ፈውን": 4914,
      "##ፈቱት": 4915,
      "##ራር": 4916,
      "##ራስ": 4917,
      "##ራባ": 4918,
      "##ራመድ": 4919,
      "##ራቶን": 4920,
      "##ትዩብ": 4921,
      "##ንጀ": 4922,
      "##ንዙ": 4923,
      "##ንክ": 4924,
      "##ንፍ": 4925,
      "##ንጅ": 4926,
      "##ንፋን": 4927,
      "##ንቀሳ": 4928,
      "##ንላይን": 4929,
      "##ዳደረ": 4930,
      "##ይሮ": 4931,
      "##ይንት": 4932,
      "##ይይት": 4933,
      "##ይሟል": 4934,
      "##ይድሮ": 4935,
      "##ገራ": 4936,
      "##ገገ": 4937,
      "##ገጠ": 4938,
      "##ገባት": 4939,
      "##አብ": 4940,
      "##ለቱ": 4941,
      "##ለጥ": 4942,
      "##ለጋ": 4943,
      "##ለፋ": 4944,
      "##ለጡ": 4945,
      "##ችሏል": 4946,
      "##ርዳ": 4947,
      "##ርዴ": 4948,
      "##ላው": 4949,
      "##ላኩ": 4950,
      "##ላሪ": 4951,
      "##ላጭ": 4952,
      "##ጎዳ": 4953,
      "##ጎብ": 4954,
      "##ጎራባ": 4955,
      "##ስቱን": 4956,
      "##ስቶችን": 4957,
      "##ሊው": 4958,
      "##ሊት": 4959,
      "##ሊንስ": 4960,
      "##ሊንዳ": 4961,
      "##ዝነ": 4962,
      "##ጀም": 4963,
      "##ሮስ": 4964,
      "##ሮክ": 4965,
      "##ሮኮ": 4966,
      "##ሮዎች": 4967,
      "##ረገ": 4968,
      "##ረመ": 4969,
      "##ረግ": 4970,
      "##ረዱ": 4971,
      "##ረና": 4972,
      "##ረፉ": 4973,
      "##ረንስ": 4974,
      "##ረሱን": 4975,
      "##በራ": 4976,
      "##በን": 4977,
      "##በገር": 4978,
      "##በኞችን": 4979,
      "##መጥ": 4980,
      "##መሪያ": 4981,
      "##ግና": 4982,
      "##ታስ": 4983,
      "##ታጥ": 4984,
      "##ታዎች": 4985,
      "##ታትን": 4986,
      "##ታነስ": 4987,
      "##ቸዉ": 4988,
      "##ቸገሩ": 4989,
      "##ቸስተር": 4990,
      "##ፓርት": 4991,
      "##ደቅ": 4992,
      "##ደኛ": 4993,
      "##ደስት": 4994,
      "##ዘዋ": 4995,
      "##ዋይ": 4996,
      "##ዋለ": 4997,
      "##ዋዜ": 4998,
      "##ወሰን": 4999,
      "##ጠል": 5000,
      "##ጠኝነት": 5001,
      "##ሙና": 5002,
      "##ቶዶ": 5003,
      "##ብቅ": 5004,
      "##ቃሉ": 5005,
      "##ጣሬ": 5006,
      "##ጣሉ": 5007,
      "##ጣጫ": 5008,
      "##ጣቸው": 5009,
      "##ጣለች": 5010,
      "##ጨት": 5011,
      "##ኝነትን": 5012,
      "##ተለ": 5013,
      "##ተች": 5014,
      "##ተመ": 5015,
      "##ናሳ": 5016,
      "##ናገ": 5017,
      "##ናማ": 5018,
      "##ናንትናው": 5019,
      "##ዊተር": 5020,
      "##ጥበብ": 5021,
      "##ሲብ": 5022,
      "##ሲሲ": 5023,
      "##ሲፊክ": 5024,
      "##ያሉ": 5025,
      "##ጋጅነት": 5026,
      "##ነን": 5027,
      "##ነች": 5028,
      "##ነግ": 5029,
      "##ነኛ": 5030,
      "##ነህ": 5031,
      "##ባው": 5032,
      "##ባበ": 5033,
      "##ባሪ": 5034,
      "##ባባይ": 5035,
      "##ቫል": 5036,
      "##ድዮ": 5037,
      "##ድራል": 5038,
      "##ድገት": 5039,
      "##ከም": 5040,
      "##ከለው": 5041,
      "##ከተው": 5042,
      "##ሪጅ": 5043,
      "##ሪስት": 5044,
      "##ቷቸዋል": 5045,
      "##ኤም": 5046,
      "##ኤች": 5047,
      "##ኖን": 5048,
      "##ሩሳሌም": 5049,
      "##ክላ": 5050,
      "##ክሽን": 5051,
      "##ክታር": 5052,
      "##ሞያዎች": 5053,
      "##ፍኝ": 5054,
      "##ፍጋኒስታን": 5055,
      "##ቻን": 5056,
      "##ኛን": 5057,
      "##ዮርጊ": 5058,
      "##ሎና": 5059,
      "##ኮስ": 5060,
      "##ሂዷል": 5061,
      "##ቨን": 5062,
      "##16": 5063,
      "##ሌይ": 5064,
      "##ሌክ": 5065,
      "##ሌዥያ": 5066,
      "##ቢል": 5067,
      "##ቢያን": 5068,
      "##ሃኒ": 5069,
      "##ኒዚያ": 5070,
      "##ቦን": 5071,
      "##ህና": 5072,
      "##ህቀት": 5073,
      "##ኪኦ": 5074,
      "##የሱስ": 5075,
      "##ጆችን": 5076,
      "##ቆች": 5077,
      "##ሽንግ": 5078,
      "##ጅራት": 5079,
      "##ሥራቅ": 5080,
      "##ቲች": 5081,
      "##ኔፓል": 5082,
      "##ሴፍ": 5083,
      "##ሴሎና": 5084,
      "##ፋል": 5085,
      "##ፋና": 5086,
      "##ዛዋ": 5087,
      "##ዛሪ": 5088,
      "##ዛመት": 5089,
      "##ዛምቢ": 5090,
      "##ፖለቲካ": 5091,
      "##ሟላት": 5092,
      "##ሺፕ": 5093,
      "##21": 5094,
      "##ቤሪያ": 5095,
      "##ሸት": 5096,
      "##ሸንፍ": 5097,
      "##ፀር": 5098,
      "##ዜሽን": 5099,
      "##ፐር": 5100,
      "##ዌይ": 5101,
      "##ዌር": 5102,
      "##ቾችን": 5103,
      "##ዓሉ": 5104,
      "##ዓዊ": 5105,
      "##ሐፊ": 5106,
      "##ዞን": 5107,
      "##60": 5108,
      "##ኳስ": 5109,
      "##ጁን": 5110,
      "##ሀሴ": 5111,
      "##ሷን": 5112,
      "##ቬይ": 5113,
      "##ቬንያ": 5114,
      "##ፑር": 5115,
      "##ዟል": 5116,
      "##ቐለ": 5117,
      "##ዎችም": 5118,
      "የሚባ": 5119,
      "የሚደር": 5120,
      "የሚሆኑ": 5121,
      "የሚመረ": 5122,
      "የሚባል": 5123,
      "የሚገባ": 5124,
      "የሚውል": 5125,
      "የሚመጣ": 5126,
      "የተጣ": 5127,
      "የተጋ": 5128,
      "የተሾ": 5129,
      "የተገኘ": 5130,
      "የተፈጠረ": 5131,
      "##ስትና": 5132,
      "የአሳ": 5133,
      "የአን": 5134,
      "የአገ": 5135,
      "የአር": 5136,
      "የአለማችን": 5137,
      "የአማራ": 5138,
      "አስርት": 5139,
      "አስከት": 5140,
      "አስቀም": 5141,
      "አስቸኳይ": 5142,
      "አስጠነ": 5143,
      "አስታጥ": 5144,
      "በመጥ": 5145,
      "በመገኘ": 5146,
      "በመዝናኛ": 5147,
      "በመክፈቻ": 5148,
      "እንደቀ": 5149,
      "እንደመ": 5150,
      "እንደደረሰ": 5151,
      "በአዲሱ": 5152,
      "በአስር": 5153,
      "በአህጉ": 5154,
      "በተፈጥሮ": 5155,
      "በተከታታይ": 5156,
      "የመዝናኛ": 5157,
      "የመቆጣጠር": 5158,
      "እንዲወ": 5159,
      "እንዲሆን": 5160,
      "እንዲወጡ": 5161,
      "ለመሸ": 5162,
      "ለመፍጠር": 5163,
      "ለመመለስ": 5164,
      "ለመርዳት": 5165,
      "ለማሻሻል": 5166,
      "ለማውጣት": 5167,
      "ለማረጋገጥ": 5168,
      "ወደብ": 5169,
      "ባለሞያዎች": 5170,
      "በማቅረብ": 5171,
      "##በርን": 5172,
      "ከተፈጥሮ": 5173,
      "በሚካሄደው": 5174,
      "##ደርጋ": 5175,
      "##ደርገው": 5176,
      "ሚኒሰ": 5177,
      "ምክኒያት": 5178,
      "እንደሚቻል": 5179,
      "እንዳስ": 5180,
      "የማስታወ": 5181,
      "የማጣሪያ": 5182,
      "እየታገ": 5183,
      "እየሰጠ": 5184,
      "##ስተው": 5185,
      "##ስተዳደር": 5186,
      "የእስር": 5187,
      "የእድሜ": 5188,
      "እስላማዊ": 5189,
      "##ያንዳን": 5190,
      "የሚያሳይ": 5191,
      "የሚያሳዩ": 5192,
      "##ልጣናትን": 5193,
      "አገደ": 5194,
      "ሚኒስትሮች": 5195,
      "አውደ": 5196,
      "አውጥቷል": 5197,
      "ድርድር": 5198,
      "##ይትስ": 5199,
      "ከአል": 5200,
      "ከአራት": 5201,
      "ከአምስት": 5202,
      "##ረስላሴ": 5203,
      "አስተላል": 5204,
      "መስህ": 5205,
      "መስፍን": 5206,
      "የህገ": 5207,
      "የህዋ": 5208,
      "##ጠናክር": 5209,
      "የምስ": 5210,
      "የምስራቅ": 5211,
      "መካከለኛው": 5212,
      "ኢንዱስት": 5213,
      "የውስጥ": 5214,
      "##ነሳሳ": 5215,
      "የአሜሪካን": 5216,
      "2012": 5217,
      "##ለያየ": 5218,
      "አካባቢው": 5219,
      "አደባባይ": 5220,
      "##ርክቲክ": 5221,
      "የግሉ": 5222,
      "የግድያ": 5223,
      "##ገሪቷ": 5224,
      "##ሊያና": 5225,
      "##ስቲን": 5226,
      "##ስቲንግ": 5227,
      "በምሥራቅ": 5228,
      "አልባሳ": 5229,
      "አልፏል": 5230,
      "ስራዎች": 5231,
      "##ብረዋል": 5232,
      "የስልጠና": 5233,
      "የስፔን": 5234,
      "የስኮት": 5235,
      "የሰር": 5236,
      "ዓመታዊ": 5237,
      "ዓመታቸው": 5238,
      "ያሉትን": 5239,
      "ተገኝቷል": 5240,
      "ተገለፀ": 5241,
      "አሳው": 5242,
      "አሳድ": 5243,
      "አሳሳቢ": 5244,
      "አንዷ": 5245,
      "የወንዶች": 5246,
      "የወደፊት": 5247,
      "የወታደራዊ": 5248,
      "ወርቅ": 5249,
      "##ምፒው": 5250,
      "አባቶች": 5251,
      "ማህበረ": 5252,
      "ወረራ": 5253,
      "መርዛማ": 5254,
      "አብዲ": 5255,
      "አብያተ": 5256,
      "አድርጋለች": 5257,
      "የካንሰር": 5258,
      "አገልግሎትን": 5259,
      "ኮሪያው": 5260,
      "የገለ": 5261,
      "የተባለው": 5262,
      "እንደተገኘ": 5263,
      "የኮሪያ": 5264,
      "የኮሚኒ": 5265,
      "በሽታው": 5266,
      "በሽታን": 5267,
      "ተወካይ": 5268,
      "እያገኘ": 5269,
      "የታጠቁ": 5270,
      "የታላቁ": 5271,
      "እንደሚያደርግ": 5272,
      "እንደሚያመለክ": 5273,
      "በግብረ": 5274,
      "በግምት": 5275,
      "አለባቸው": 5276,
      "ከመንግስት": 5277,
      "ለአለም": 5278,
      "ለአፍሪካ": 5279,
      "አፍሪካን": 5280,
      "##ኛውም": 5281,
      "ስምምነቱ": 5282,
      "##ድሞው": 5283,
      "ለሚደረገው": 5284,
      "በታዋቂ": 5285,
      "በታህሳስ": 5286,
      "በታይላንድ": 5287,
      "የበላይ": 5288,
      "##ቤትነት": 5289,
      "መልስ": 5290,
      "ይገል": 5291,
      "##ቀጥል": 5292,
      "##ቀጥሉ": 5293,
      "እንዲያደርጉ": 5294,
      "##ካባቢው": 5295,
      "የነበረችው": 5296,
      "ለተጎዱ": 5297,
      "አርሶ": 5298,
      "##ቨርስቲ": 5299,
      "የሀገሪቱን": 5300,
      "ግብአ": 5301,
      "ግብፅ": 5302,
      "ፓርቲን": 5303,
      "ፓርቲዎች": 5304,
      "መጠንን": 5305,
      "ሳይሆን": 5306,
      "ማስወገድ": 5307,
      "##ገደሉ": 5308,
      "ህይወቱ": 5309,
      "በቀል": 5310,
      "በቀለ": 5311,
      "በቀረበ": 5312,
      "ያልታ": 5313,
      "ያልሆነ": 5314,
      "የትምህርት": 5315,
      "የፍትህ": 5316,
      "##ሞክር": 5317,
      "የኦሎምፒክ": 5318,
      "ያስመዘገበ": 5319,
      "መቀሌ": 5320,
      "በህገ": 5321,
      "በሀገር": 5322,
      "የክብር": 5323,
      "##ውልት": 5324,
      "በረከት": 5325,
      "በዩኤስ": 5326,
      "በዩክሬን": 5327,
      "በዩኔስኮ": 5328,
      "ኃላፊነት": 5329,
      "ኤጀንሲው": 5330,
      "##ደግፍ": 5331,
      "##ዲያስፖራ": 5332,
      "ለኢን": 5333,
      "በነበረው": 5334,
      "በ2010": 5335,
      "በ2015": 5336,
      "አሰሳ": 5337,
      "አማካሪ": 5338,
      "የሚጠጋ": 5339,
      "የአካባቢውን": 5340,
      "በሙስና": 5341,
      "የተመልካ": 5342,
      "በትናንትናው": 5343,
      "ከ10": 5344,
      "ከ12": 5345,
      "ከ19": 5346,
      "##ሰንበት": 5347,
      "ለማስወገድ": 5348,
      "ባለሥልጣን": 5349,
      "በባህር": 5350,
      "በኤርትራ": 5351,
      "ኃይሎችን": 5352,
      "የተነሳው": 5353,
      "መሳሪያዎችን": 5354,
      "በጥይት": 5355,
      "በኮሮና": 5356,
      "ገብረስላሴ": 5357,
      "##ጠናቀቁ": 5358,
      "አምባሳደሮች": 5359,
      "ውድድሩ": 5360,
      "##ሞክራሲ": 5361,
      "ሃይማኖ": 5362,
      "በሳምንቱ": 5363,
      "ካርጎ": 5364,
      "##ፈረንስ": 5365,
      "##ጀርባ": 5366,
      "##ከብሩ": 5367,
      "ዝግጅቱን": 5368,
      "አክለውም": 5369,
      "ደረጀ": 5370,
      "ደረሱ": 5371,
      "##ክለር": 5372,
      "የኢንቨስትመንት": 5373,
      "አስተዋጽኦ": 5374,
      "መጠለያ": 5375,
      "መጠይቅ": 5376,
      "ማእድን": 5377,
      "ተስማምተዋል": 5378,
      "ግለሰብ": 5379,
      "እንደገለፀው": 5380,
      "የመጨረሻው": 5381,
      "ኢንቨስትመን": 5382,
      "አስፈላጊውን": 5383,
      "መምህር": 5384,
      "ኮንፈረንስ": 5385,
      "የሃይድሮ": 5386,
      "##ገልጽ": 5387,
      "##ዚያና": 5388,
      "እንዳለባቸው": 5389,
      "አገሪቱን": 5390,
      "ቡድኑ": 5391,
      "ብሎም": 5392,
      "ትኩረ": 5393,
      "እውነ": 5394,
      "##ብራለች": 5395,
      "እንግሊ": 5396,
      "የተቀላቀ": 5397,
      "የፖሊስ": 5398,
      "ለኢትዮጵያውያን": 5399,
      "ተስፋዬ": 5400,
      "##በልጥ": 5401,
      "##ስተናገድ": 5402,
      "ድርጅቱ": 5403,
      "ስኬት": 5404,
      "ተሳትፈዋል": 5405,
      "የዲዛ": 5406,
      "የዲጂታል": 5407,
      "##ርማሲ": 5408,
      "ለመቀነስ": 5409,
      "የማይበገር": 5410,
      "ምስል": 5411,
      "ምስጢ": 5412,
      "በቴክኖሎጂ": 5413,
      "አጋር": 5414,
      "አጋርነት": 5415,
      "ከእነዚህ": 5416,
      "ዘርፎች": 5417,
      "ዝርያዎች": 5418,
      "የኩፍኝ": 5419,
      "የሕዝብ": 5420,
      "ገደል": 5421,
      "ገደማ": 5422,
      "በአየርላንድ": 5423,
      "በማስመ": 5424,
      "አሸንፋለች": 5425,
      "ገለፀች": 5426,
      "ሽልማትን": 5427,
      "##ሁለተኛው": 5428,
      "መመሪያ": 5429,
      "መመዝገብ": 5430,
      "አፀደቁ": 5431,
      "##ሳዩት": 5432,
      "የማህበራዊ": 5433,
      "አሳወቁ": 5434,
      "አድርጎታል": 5435,
      "የአውስትራሊያው": 5436,
      "መቀመጫውን": 5437,
      "ሳተላይ": 5438,
      "በፊሊፒንስ": 5439,
      "ተሰይሟል": 5440,
      "ነገሮች": 5441,
      "ከኢራን": 5442,
      "ከኢዜአ": 5443,
      "##ፈጸሙ": 5444,
      "##ክተሮች": 5445,
      "በተባለ": 5446,
      "##ካሄደውን": 5447,
      "ኦርቶዶ": 5448,
      "ክለቦች": 5449,
      "የድምፅ": 5450,
      "የቅርብ": 5451,
      "የቅርጫት": 5452,
      "ጥቃቶች": 5453,
      "የተገኙት": 5454,
      "እንዳስታወቁት": 5455,
      "እንደሚያስፈል": 5456,
      "ሻምፒዮንሺፕ": 5457,
      "በዘንድሮው": 5458,
      "ተነገረ": 5459,
      "ከ200": 5460,
      "የዳያስፖራ": 5461,
      "የበረዶ": 5462,
      "ገድሏል": 5463,
      "ጠይቀዋል": 5464,
      "የምርመራ": 5465,
      "መቃብሮች": 5466,
      "ምህዳር": 5467,
      "ሰራሽ": 5468,
      "ተንቀሳ": 5469,
      "ከበደ": 5470,
      "ከጥቂት": 5471,
      "ከጥቅምት": 5472,
      "ውዝዋዜ": 5473,
      "የቦምብ": 5474,
      "የሆስፒ": 5475,
      "የፋይናንስ": 5476,
      "##ሻንጉል": 5477,
      "##ፖሊስ": 5478,
      "በሚቀጥሉት": 5479,
      "አልበም": 5480,
      "ተገደሉ": 5481,
      "ሕዝባዊ": 5482,
      "በ2020": 5483,
      "ተደራሽ": 5484,
      "ቱሪስቶች": 5485,
      "ታስቦ": 5486,
      "አዘዙ": 5487,
      "ኪንግደም": 5488,
      "ካንሰርን": 5489,
      "የጣሊያን": 5490,
      "የፈረንሳዩ": 5491,
      "የፈረንሣይ": 5492,
      "የከተማዋ": 5493,
      "ጥርጣሬ": 5494,
      "ፈረንሳይ": 5495,
      "ፕሪሚየር": 5496,
      "በአካባቢው": 5497,
      "በተነሳው": 5498,
      "ማዕቀብ": 5499,
      "እንደሚያሳየው": 5500,
      "አህጉራዊ": 5501,
      "የክልሉ": 5502,
      "ያደርጋሉ": 5503,
      "ያደርጋታል": 5504,
      "ሃላፊነት": 5505,
      "ህፃናት": 5506,
      "ልዑካን": 5507,
      "ሰነድ": 5508,
      "ቋንቋዎች": 5509,
      "ተጋላጭ": 5510,
      "ትውልድ": 5511,
      "አሉታዊ": 5512,
      "ከሀገር": 5513,
      "የዝናብ": 5514,
      "የድንበር": 5515,
      "ፖለቲካዊ": 5516,
      "አስገድዶ": 5517,
      "በመግባት": 5518,
      "እድገትን": 5519,
      "መልእክት": 5520,
      "ኮሚሽነር": 5521,
      "ተዋጊዎች": 5522,
      "የቤተሰብ": 5523,
      "መዳረሻ": 5524,
      "መዝሙ": 5525,
      "ሰራተኞችን": 5526,
      "ሲቪኤስ": 5527,
      "ቅሪተ": 5528,
      "ተጠናቋል": 5529,
      "ነሐሴ": 5530,
      "ንጉስ": 5531,
      "ከኮቪድ": 5532,
      "ኬሚካሎችን": 5533,
      "ክስተት": 5534,
      "የሽብር": 5535,
      "የቼክ": 5536,
      "የክትባት": 5537,
      "ዩኤስኤአይዲ": 5538,
      "ይወዳ": 5539,
      "ዳግም": 5540,
      "ጀልባ": 5541,
      "##ቧንቧ": 5542,
      "በመቀነስ": 5543,
      "ለመስራት": 5544,
      "ለመወያየት": 5545,
      "አሳልፎ": 5546,
      "ተመዝግቧል": 5547,
      "ፖለቲከኞች": 5548,
      "ሃምሳ": 5549,
      "ለሰባት": 5550,
      "ለንደን": 5551,
      "ለሙሉ": 5552,
      "ልውውጥ": 5553,
      "ሲነፃፀር": 5554,
      "ሴኔጋል": 5555,
      "ቀነኒሳ": 5556,
      "ባርሴሎና": 5557,
      "ተጽዕኖ": 5558,
      "ተኮር": 5559,
      "አበረታች": 5560,
      "እልቂት": 5561,
      "ወገኖች": 5562,
      "ዝውውር": 5563,
      "የሳተላይት": 5564,
      "ያገለገ": 5565,
      "ይሳተፋሉ": 5566,
      "ግጥሚያ": 5567,
      "ጠባቂ": 5568,
      "ጥፋተኛ": 5569,
      "ፈንጂ": 5570,
      "##ትላንቲ": 5571,
      "##ጀንቲና": 5572,
      "##ህአዴግ": 5573,
      "አስቆጥሯል": 5574,
      "የመርከብ": 5575,
      "የመድሃኒት": 5576,
      "ባለሀብቶች": 5577,
      "አይደለም": 5578,
      "አንጀለስ": 5579,
      "ባንዲራ": 5580,
      "አክቲቪ": 5581,
      "ደርሶባቸዋል": 5582,
      "ኢንተርፕራይዞች": 5583,
      "ሙዚቀኛ": 5584,
      "መገልገያ": 5585,
      "ብሮድካስቲንግ": 5586,
      "##ሊኮፕተር": 5587,
      "ሀይማኖታዊ": 5588,
      "ህመም": 5589,
      "ለረጅም": 5590,
      "ለህልፈት": 5591,
      "ሊሚትድ": 5592,
      "ምኞት": 5593,
      "ረቡዕ": 5594,
      "ሰዓታት": 5595,
      "ሳሙኤል": 5596,
      "ቀርቧል": 5597,
      "በዛሬው": 5598,
      "ተለቀቀ": 5599,
      "ተያይዞ": 5600,
      "ትገኛለች": 5601,
      "አጀንዳ": 5602,
      "ኢነርጂ": 5603,
      "ኪሳራ": 5604,
      "ያካትታል": 5605,
      "ገሞራ": 5606,
      "ጳውሎስ": 5607,
      "ጽሕፈት": 5608,
      "##ጎራባች": 5609,
      "##ዘዋወር": 5610,
      "##ዮርጊስ": 5611,
      "##ሽንግተን": 5612,
      "##ዛምቢክ": 5613,
      "አስጠነቀቁ": 5614,
      "አስታጥቄ": 5615,
      "##ያንዳንዱ": 5616,
      "ኦርቶዶክስ": 5617,
      "04": 5618,
      "03": 5619,
      "26": 5620,
      "35": 5621,
      "33": 5622,
      "45": 5623,
      "44": 5624,
      "43": 5625,
      "47": 5626,
      "46": 5627,
      "400": 5628,
      "53": 5629,
      "59": 5630,
      "61": 5631,
      "600": 5632,
      "73": 5633,
      "80": 5634,
      "88": 5635,
      "94": 5636,
      "AI": 5637,
      "CV": 5638,
      "IT": 5639,
      "kን": 5640,
      "ሀላፊ": 5641,
      "ሀረር": 5642,
      "ሁዋ": 5643,
      "ሁሌም": 5644,
      "ሂፕ": 5645,
      "ሂደ": 5646,
      "ሃገ": 5647,
      "ሃውስ": 5648,
      "ሄክታር": 5649,
      "ህገ": 5650,
      "ህወ": 5651,
      "ህዳር": 5652,
      "ህንፃ": 5653,
      "ሆሳ": 5654,
      "ሆኪ": 5655,
      "ለል": 5656,
      "ለበ": 5657,
      "ለጉ": 5658,
      "ለፀ": 5659,
      "ለሆኑ": 5660,
      "ለዚህ": 5661,
      "ለጤና": 5662,
      "ለዓለም": 5663,
      "ለደን": 5664,
      "ለምን": 5665,
      "ለያዙ": 5666,
      "ሉዊስ": 5667,
      "ሊቃ": 5668,
      "ሊኖ": 5669,
      "ሊዩ": 5670,
      "ሊትር": 5671,
      "ሊኖር": 5672,
      "ሊከሰት": 5673,
      "ላው": 5674,
      "ላለ": 5675,
      "ላስ": 5676,
      "ሌሎችን": 5677,
      "ልቀ": 5678,
      "ሎጅ": 5679,
      "ሕንፃ": 5680,
      "መብ": 5681,
      "መተ": 5682,
      "መኩ": 5683,
      "መሥ": 5684,
      "መሀ": 5685,
      "መድን": 5686,
      "መምህ": 5687,
      "መጠበ": 5688,
      "መመለስ": 5689,
      "መዝናኛ": 5690,
      "መፈና": 5691,
      "መጪው": 5692,
      "መቐለ": 5693,
      "ሙያ": 5694,
      "ሚል": 5695,
      "ሚንስ": 5696,
      "ሚደረጉ": 5697,
      "ሚካኤል": 5698,
      "ማመ": 5699,
      "ማሻ": 5700,
      "ማያ": 5701,
      "ማቆ": 5702,
      "ማሽ": 5703,
      "ማርክ": 5704,
      "ማርስ": 5705,
      "ማቋቋ": 5706,
      "ማውጣ": 5707,
      "ማምረት": 5708,
      "ሜይ": 5709,
      "ሜጋ": 5710,
      "ሜዳል": 5711,
      "ሜክሲኮ": 5712,
      "ሜሊንዳ": 5713,
      "ምሁ": 5714,
      "ምጣኔ": 5715,
      "ሞል": 5716,
      "ሞላ": 5717,
      "ሟቹ": 5718,
      "ሥልጠና": 5719,
      "ሦስተኛ": 5720,
      "ረብ": 5721,
      "ሩዋንዳ": 5722,
      "ራግቢ": 5723,
      "ራይትስ": 5724,
      "ሬይ": 5725,
      "ሬድ": 5726,
      "ርምጃ": 5727,
      "ሮቤ": 5728,
      "ሰመረ": 5729,
      "ሰዓት": 5730,
      "ሰብራለች": 5731,
      "ሱቅ": 5732,
      "ሱናሚ": 5733,
      "ሲወ": 5734,
      "ሲሪ": 5735,
      "ሲዘዋወር": 5736,
      "ሳክስ": 5737,
      "ሳዑዲ": 5738,
      "ሴንት": 5739,
      "ስክ": 5740,
      "ስእ": 5741,
      "ስህ": 5742,
      "ስልጣ": 5743,
      "ስፔን": 5744,
      "ስዊዘርላንድ": 5745,
      "ስሎቫኪያ": 5746,
      "ሶስተኛ": 5747,
      "ሶሊያና": 5748,
      "ሹመ": 5749,
      "ሾመ": 5750,
      "ቃጠ": 5751,
      "ቅን": 5752,
      "ቅነሳ": 5753,
      "ቆይተዋል": 5754,
      "በፕ": 5755,
      "በቡ": 5756,
      "በላ": 5757,
      "በጠ": 5758,
      "በዶ": 5759,
      "በሸ": 5760,
      "በ4": 5761,
      "በፅ": 5762,
      "በቂ": 5763,
      "በጁ": 5764,
      "በጌ": 5765,
      "በደር": 5766,
      "በድር": 5767,
      "በበረ": 5768,
      "በድን": 5769,
      "በስራ": 5770,
      "በሰብ": 5771,
      "በኤል": 5772,
      "በደን": 5773,
      "በፈረን": 5774,
      "በይነ": 5775,
      "በገቡ": 5776,
      "በሌላ": 5777,
      "በዚካ": 5778,
      "በጀርመን": 5779,
      "በበርካታ": 5780,
      "በሦስት": 5781,
      "ቡና": 5782,
      "ቢጫ": 5783,
      "ቢኖር": 5784,
      "ቢሊየን": 5785,
      "ቢዝነ": 5786,
      "ባሻ": 5787,
      "ባሕ": 5788,
      "ባላቸው": 5789,
      "ባህል": 5790,
      "ቤጂንግ": 5791,
      "ቤዝቦል": 5792,
      "ብሉ": 5793,
      "ብረት": 5794,
      "ብቃት": 5795,
      "ብዝሃ": 5796,
      "ቦሌ": 5797,
      "ቦክስ": 5798,
      "ቦታው": 5799,
      "ቦምብ": 5800,
      "ቬጋ": 5801,
      "ቮል": 5802,
      "ተk": 5803,
      "ተያ": 5804,
      "ተባ": 5805,
      "ተዕ": 5806,
      "ተገኙ": 5807,
      "ተከላ": 5808,
      "ተሰብ": 5809,
      "ተሰራ": 5810,
      "ተፈጥ": 5811,
      "ተዘገበ": 5812,
      "ተያዙ": 5813,
      "ተለየ": 5814,
      "ተዘጋጅ": 5815,
      "ተችሏል": 5816,
      "ተስተው": 5817,
      "ቱር": 5818,
      "ታዳ": 5819,
      "ታግ": 5820,
      "ታድ": 5821,
      "ቴዲ": 5822,
      "ትም": 5823,
      "ትዕ": 5824,
      "ትሆና": 5825,
      "ትኬት": 5826,
      "ትዊተር": 5827,
      "ቻና": 5828,
      "ቻምፒ": 5829,
      "ቼፕ": 5830,
      "ችሎት": 5831,
      "ነጠ": 5832,
      "ነኝ": 5833,
      "ነባ": 5834,
      "ነፍ": 5835,
      "ነፋ": 5836,
      "ነበሩ": 5837,
      "ነቀር": 5838,
      "ናሙና": 5839,
      "ኔታንያ": 5840,
      "ንክ": 5841,
      "ኖር": 5842,
      "አዝ": 5843,
      "አጠ": 5844,
      "አሲ": 5845,
      "አያ": 5846,
      "አሽ": 5847,
      "አበር": 5848,
      "አረጋ": 5849,
      "አመለ": 5850,
      "አማን": 5851,
      "አወጣ": 5852,
      "አላስ": 5853,
      "አረጋግ": 5854,
      "አሚር": 5855,
      "አፋር": 5856,
      "አጭር": 5857,
      "አረጋግጧል": 5858,
      "ኡን": 5859,
      "ኢል": 5860,
      "ኢሬ": 5861,
      "ኢድ": 5862,
      "ኢኳ": 5863,
      "ኢህአዴግ": 5864,
      "ኤር": 5865,
      "ኤሊ": 5866,
      "ኤዲ": 5867,
      "እት": 5868,
      "እቃ": 5869,
      "እቅ": 5870,
      "እውን": 5871,
      "እሳተ": 5872,
      "እጥረት": 5873,
      "እያንዳንዱ": 5874,
      "ኦስ": 5875,
      "ኦፕሬ": 5876,
      "ከሊ": 5877,
      "ከሜ": 5878,
      "ከድ": 5879,
      "ከሩ": 5880,
      "ከ5": 5881,
      "ከፊ": 5882,
      "ከ4": 5883,
      "ከኳ": 5884,
      "ከባቢ": 5885,
      "ከዓለም": 5886,
      "ከደቡብ": 5887,
      "ከብቶች": 5888,
      "ከፈረንሳይ": 5889,
      "ከሪፖርተር": 5890,
      "ከጊዜ": 5891,
      "ከጠቅላይ": 5892,
      "ከሌሎች": 5893,
      "ካል": 5894,
      "ካሳ": 5895,
      "ካፕ": 5896,
      "ካሊ": 5897,
      "ካቶ": 5898,
      "ካሜ": 5899,
      "ካልተ": 5900,
      "ክሬ": 5901,
      "ክን": 5902,
      "ክሶች": 5903,
      "ክሊን": 5904,
      "ኮከ": 5905,
      "ኮሎ": 5906,
      "ኮርያ": 5907,
      "ኮሙኒኬሽን": 5908,
      "ወግ": 5909,
      "ወድ": 5910,
      "ወኪ": 5911,
      "ወክሎ": 5912,
      "ዊን": 5913,
      "ዋን": 5914,
      "ዋሻ": 5915,
      "ዋስትና": 5916,
      "ውስን": 5917,
      "ውጥረ": 5918,
      "ዎች": 5919,
      "ዓሣ": 5920,
      "ዕር": 5921,
      "ዕቅድ": 5922,
      "ዘመ": 5923,
      "ዘጋ": 5924,
      "የጽ": 5925,
      "የይ": 5926,
      "የች": 5927,
      "የሎ": 5928,
      "የሌ": 5929,
      "የኪ": 5930,
      "የኃ": 5931,
      "የ2": 5932,
      "የ4": 5933,
      "የፅ": 5934,
      "የ3": 5935,
      "የፎ": 5936,
      "የዞ": 5937,
      "የ6": 5938,
      "የላይ": 5939,
      "የብር": 5940,
      "የኤል": 5941,
      "የ20": 5942,
      "የኔት": 5943,
      "የይዘ": 5944,
      "የጀመረ": 5945,
      "የሪዮ": 5946,
      "የቫይ": 5947,
      "የደረሰባቸው": 5948,
      "የዲያስፖራ": 5949,
      "የቧንቧ": 5950,
      "ያን": 5951,
      "ያነ": 5952,
      "ያሸ": 5953,
      "ያደረገ": 5954,
      "ያበረ": 5955,
      "ያደረጉት": 5956,
      "ያተኮ": 5957,
      "ያጋጠ": 5958,
      "ይሄ": 5959,
      "ይተ": 5960,
      "ይቻ": 5961,
      "ይሸ": 5962,
      "ይታወ": 5963,
      "ይፈጥ": 5964,
      "ይደግ": 5965,
      "ይቀን": 5966,
      "ይበልጥ": 5967,
      "ደስ": 5968,
      "ደመ": 5969,
      "ደለል": 5970,
      "ዱቴር": 5971,
      "ዲፓርት": 5972,
      "ዳን": 5973,
      "ዳማ": 5974,
      "ዴል": 5975,
      "ድሮ": 5976,
      "ድሮን": 5977,
      "ዶት": 5978,
      "ዶክተሮች": 5979,
      "ጄኔ": 5980,
      "ጅማ": 5981,
      "ጅቡቲ": 5982,
      "ገዛ": 5983,
      "ገንዳ": 5984,
      "ገንዘብ": 5985,
      "ጉግል": 5986,
      "ጉንፋን": 5987,
      "ጊዮርጊስ": 5988,
      "ጋዳ": 5989,
      "ግዥ": 5990,
      "ግጭ": 5991,
      "ግፊት": 5992,
      "ግሪክ": 5993,
      "ግርዶ": 5994,
      "ጎን": 5995,
      "ጎልፍ": 5996,
      "ጎረቤት": 5997,
      "ጥላ": 5998,
      "ጥረ": 5999,
      "ጥገና": 6000,
      "ጥምረት": 6001,
      "ጥቁር": 6002,
      "ጨው": 6003,
      "ጸሐፊ": 6004,
      "ፋራ": 6005,
      "ፋና": 6006,
      "ፋሲል": 6007,
      "ፋርማሲ": 6008,
      "ፍሰ": 6009,
      "ፍራ": 6010,
      "ፍት": 6011,
      "ፍቅረ": 6012,
      "ፍጥነት": 6013,
      "ፍለጋ": 6014,
      "ፒተር": 6015,
      "ፓኬ": 6016,
      "ፓሲፊክ": 6017,
      "ፔሬ": 6018,
      "##ሚል": 6019,
      "##ሚሊዮን": 6020,
      "##ሚዛዋ": 6021,
      "##ውም": 6022,
      "##ውዝ": 6023,
      "##ውኑ": 6024,
      "##ውስት": 6025,
      "##ውለው": 6026,
      "##ልደ": 6027,
      "##ልቦ": 6028,
      "##ልከት": 6029,
      "##ልቀቅ": 6030,
      "##ሬሳ": 6031,
      "##ሳፈ": 6032,
      "##ሳወ": 6033,
      "##ሳሌ": 6034,
      "##ሳሰብ": 6035,
      "##ካሂ": 6036,
      "##ምፓ": 6037,
      "##ምቢያ": 6038,
      "##ምቷል": 6039,
      "##ሰሳ": 6040,
      "##ሰሰ": 6041,
      "##ሰዶ": 6042,
      "##ሰውን": 6043,
      "##ሰሜን": 6044,
      "##ፈሻ": 6045,
      "##ፈጥር": 6046,
      "##ፈሳዊ": 6047,
      "##ራቱ": 6048,
      "##ራሪ": 6049,
      "##ራኒ": 6050,
      "##ራተኛ": 6051,
      "##ራለች": 6052,
      "##ራፊክ": 6053,
      "##ራቶሪ": 6054,
      "##ሄዱ": 6055,
      "##ትራኒ": 6056,
      "##ንማ": 6057,
      "##ንቶ": 6058,
      "##ንጊ": 6059,
      "##ዳም": 6060,
      "##ይዝ": 6061,
      "##ይተው": 6062,
      "##ይይቱ": 6063,
      "##ገስ": 6064,
      "##ገዝ": 6065,
      "##ገነ": 6066,
      "##ገንዘብ": 6067,
      "##አክ": 6068,
      "##አንግ": 6069,
      "##ለትን": 6070,
      "##ለቃሽ": 6071,
      "##ማቅ": 6072,
      "##ማመን": 6073,
      "##ማሚያ": 6074,
      "##ችበት": 6075,
      "##ርቻ": 6076,
      "##ርሞን": 6077,
      "##ቭል": 6078,
      "##ላዴ": 6079,
      "##ላስቲ": 6080,
      "##ላንትናው": 6081,
      "##ላሩስ": 6082,
      "##ጎበኙ": 6083,
      "##ስል": 6084,
      "##ስቱ": 6085,
      "##ስቶ": 6086,
      "##ስቷል": 6087,
      "##ስሏል": 6088,
      "##ዴት": 6089,
      "##ዴታ": 6090,
      "##ሊበ": 6091,
      "##ሊኩ": 6092,
      "##ሊዮኖች": 6093,
      "##ዝበ": 6094,
      "##ጀውን": 6095,
      "##ጀንስ": 6096,
      "##ሮቹ": 6097,
      "##ሮቹን": 6098,
      "##ሮቻቸው": 6099,
      "##ዎቿ": 6100,
      "##ቀበ": 6101,
      "##ቀብ": 6102,
      "##ቀሱ": 6103,
      "##ቀኑ": 6104,
      "##ቀችው": 6105,
      "##ቀረበ": 6106,
      "##ቀረቡ": 6107,
      "##ቀላቀ": 6108,
      "##ቀነሰ": 6109,
      "##ረዘ": 6110,
      "##ረቻ": 6111,
      "##ረሱ": 6112,
      "##ረጉ": 6113,
      "##ረታዊ": 6114,
      "##ረርሽ": 6115,
      "##ረምት": 6116,
      "##ረዳት": 6117,
      "##በሳ": 6118,
      "##በኞ": 6119,
      "##በራል": 6120,
      "##መሮች": 6121,
      "##መላክ": 6122,
      "##ግን": 6123,
      "##ግሌ": 6124,
      "##ታም": 6125,
      "##ታሉ": 6126,
      "##ታየ": 6127,
      "##ታላይ": 6128,
      "##ፓሮ": 6129,
      "##ደባ": 6130,
      "##ዘረ": 6131,
      "##ዘጉ": 6132,
      "##ዋስ": 6133,
      "##ዋዋ": 6134,
      "##ዋጋት": 6135,
      "##ወች": 6136,
      "##ወረ": 6137,
      "##ወግ": 6138,
      "##ወድ": 6139,
      "##ወክ": 6140,
      "##ወችን": 6141,
      "##ጠየ": 6142,
      "##ጠውን": 6143,
      "##ጠችው": 6144,
      "##ሙትን": 6145,
      "##ቶክ": 6146,
      "##ቶሪያል": 6147,
      "##ቶቢስ": 6148,
      "##ብይ": 6149,
      "##ብዛ": 6150,
      "##ብኚ": 6151,
      "##ቃኝ": 6152,
      "##ዱላ": 6153,
      "##ጣው": 6154,
      "##ጣኝ": 6155,
      "##ጣትን": 6156,
      "##ተስ": 6157,
      "##ተሻ": 6158,
      "##ተሩ": 6159,
      "##ተሮች": 6160,
      "##ተኞችን": 6161,
      "##ተላለፍ": 6162,
      "##ናር": 6163,
      "##ናቱ": 6164,
      "##ናጀ": 6165,
      "##ናለሁ": 6166,
      "##ሻል": 6167,
      "##ጥሬ": 6168,
      "##ጥሮ": 6169,
      "##ጥረው": 6170,
      "##ጥለቀ": 6171,
      "##ቅል": 6172,
      "##ቅም": 6173,
      "##ቅጣት": 6174,
      "##ቅሷል": 6175,
      "##ሲባዊ": 6176,
      "##ዬቭ": 6177,
      "##ያው": 6178,
      "##ያንግ": 6179,
      "##ያቸውን": 6180,
      "##ያዊው": 6181,
      "##ጋገ": 6182,
      "##ጋር": 6183,
      "##ጋግ": 6184,
      "##ጋፋ": 6185,
      "##ጋጭ": 6186,
      "##ጋስካር": 6187,
      "##ነዳ": 6188,
      "##ነድ": 6189,
      "##ነፉ": 6190,
      "##ነታቸው": 6191,
      "##ነበረበት": 6192,
      "##ባንድ": 6193,
      "##ባትን": 6194,
      "##ባለች": 6195,
      "##ባበሩት": 6196,
      "##ቫን": 6197,
      "##ቫዶ": 6198,
      "##ቫርድ": 6199,
      "##ድራ": 6200,
      "##ድቡ": 6201,
      "##ድዋ": 6202,
      "##ድተዋል": 6203,
      "##ኬን": 6204,
      "##ኬታማ": 6205,
      "##ከማ": 6206,
      "##ከለች": 6207,
      "##ሪዳ": 6208,
      "##ሪቲ": 6209,
      "##ሪንግ": 6210,
      "##ሪላን": 6211,
      "##ሪኬት": 6212,
      "##ኤኤፍ": 6213,
      "##ቪን": 6214,
      "##ቪያ": 6215,
      "##ቪክ": 6216,
      "##ኖቫ": 6217,
      "##ኖቹ": 6218,
      "##ዶቹ": 6219,
      "##ክሰ": 6220,
      "##ክቱ": 6221,
      "##ክሩ": 6222,
      "##ክበር": 6223,
      "##ክለዋል": 6224,
      "##ፍቶ": 6225,
      "##ፍጨ": 6226,
      "##ፍና": 6227,
      "##ፍያ": 6228,
      "##ፍቲ": 6229,
      "##ፍረስ": 6230,
      "##ቻሉ": 6231,
      "##ቻችንን": 6232,
      "##ዲየም": 6233,
      "##ኛዎቹ": 6234,
      "##ዮቴ": 6235,
      "##ዮንግ": 6236,
      "##ዮዲን": 6237,
      "##ሎቹ": 6238,
      "##ኮላ": 6239,
      "##ኮግ": 6240,
      "##ኮችን": 6241,
      "##ኮቻቸውን": 6242,
      "##1ኛ": 6243,
      "##ሌን": 6244,
      "##ቢሲ": 6245,
      "##ቢኔ": 6246,
      "##ሃር": 6247,
      "##ሃብ": 6248,
      "##ሃመድ": 6249,
      "##ሃድሶ": 6250,
      "##ኒን": 6251,
      "##ኒየር": 6252,
      "##ኒሴፍ": 6253,
      "##ቦቹ": 6254,
      "##ቦራቶሪ": 6255,
      "##ህረ": 6256,
      "##ህላዊ": 6257,
      "##ህሎት": 6258,
      "##ህበራዊ": 6259,
      "##ጻጸ": 6260,
      "##ኪው": 6261,
      "##ዕል": 6262,
      "##ዕምሮ": 6263,
      "##የቱ": 6264,
      "##የሩሳሌም": 6265,
      "##ጆር": 6266,
      "##ጆቹ": 6267,
      "##ቆለ": 6268,
      "##ፌዴሬሽን": 6269,
      "##ፌክሽን": 6270,
      "##ሽነ": 6271,
      "##ሽኑ": 6272,
      "##ጅቱን": 6273,
      "##ቲቾ": 6274,
      "##ቲንግ": 6275,
      "##ኔታ": 6276,
      "##ሆማ": 6277,
      "##ፋንቲ": 6278,
      "##ፋሪዎችን": 6279,
      "##ጃም": 6280,
      "##ጃሚን": 6281,
      "##ዛቷ": 6282,
      "##ዛጋቢ": 6283,
      "##ዛኪስታን": 6284,
      "##ጉን": 6285,
      "##ጉር": 6286,
      "##ሠረተ": 6287,
      "##ጸጥታ": 6288,
      "##ሺማ": 6289,
      "##ፃር": 6290,
      "##ፃቸው": 6291,
      "##ቤክ": 6292,
      "##ሸራ": 6293,
      "##ሸር": 6294,
      "##ሸዋ": 6295,
      "##ፅዋት": 6296,
      "##ፅህና": 6297,
      "##ሔር": 6298,
      "##ጪዎቹ": 6299,
      "##ጊድ": 6300,
      "##ቂኝ": 6301,
      "##ሶታ": 6302,
      "##ዌት": 6303,
      "##ዌልዝ": 6304,
      "##ጮችን": 6305,
      "##97": 6306,
      "##ጤን": 6307,
      "##ሐፍት": 6308,
      "##ዉን": 6309,
      "##ሓት": 6310,
      "##ጓጓ": 6311,
      "##ጌታ": 6312,
      "##ol": 6313,
      "##ve": 6314,
      "##ዑካን": 6315,
      "እንጂ": 6316,
      "እንዴት": 6317,
      "የሚስተዋ": 6318,
      "የሚሰሩ": 6319,
      "የሚሰጡ": 6320,
      "የሚመጡ": 6321,
      "የሚኖሩ": 6322,
      "የሚገኘውን": 6323,
      "የሚከበር": 6324,
      "የሚውሉ": 6325,
      "የሚታወቀው": 6326,
      "የሚወሰዱ": 6327,
      "የሚኒስቴሩ": 6328,
      "የተሳ": 6329,
      "የተደረጉ": 6330,
      "የተጠቃ": 6331,
      "የተሳተ": 6332,
      "የተገለ": 6333,
      "የተያያዘ": 6334,
      "የተፈረ": 6335,
      "የተለመ": 6336,
      "የተጠቁ": 6337,
      "የተዘጋጀው": 6338,
      "የተጠበቀ": 6339,
      "የተከበሩ": 6340,
      "የአራት": 6341,
      "የአርቲ": 6342,
      "የአካል": 6343,
      "የአባይ": 6344,
      "የአሁኑ": 6345,
      "የአረንጓዴ": 6346,
      "የአምስት": 6347,
      "የአፕል": 6348,
      "የአደጋ": 6349,
      "የአዕምሮ": 6350,
      "##ዋልታ": 6351,
      "አስጊ": 6352,
      "አስመር": 6353,
      "በመዝ": 6354,
      "በመብ": 6355,
      "በመሞ": 6356,
      "በመድረ": 6357,
      "በመሬት": 6358,
      "በመጠር": 6359,
      "በመገንባት": 6360,
      "በመታገ": 6361,
      "በመውሰድ": 6362,
      "በመከሰቱ": 6363,
      "በመጪዎቹ": 6364,
      "እንደደረሰበት": 6365,
      "በአር": 6366,
      "በአምስት": 6367,
      "በአለማችን": 6368,
      "በአሥር": 6369,
      "በአርክቲክ": 6370,
      "በአብዛ": 6371,
      "##ንግስ": 6372,
      "##ንግሊ": 6373,
      "በተጋ": 6374,
      "በተገኘ": 6375,
      "በተጠረ": 6376,
      "በተዘጋጀው": 6377,
      "በተስፋፋ": 6378,
      "በተሳካ": 6379,
      "የመል": 6380,
      "የመቋቋም": 6381,
      "የመልካ": 6382,
      "የመገናኛ": 6383,
      "የመፈንቅለ": 6384,
      "እንዲታ": 6385,
      "እንዲመራ": 6386,
      "እንዲሰሩ": 6387,
      "እንዲካሄድ": 6388,
      "እንዲጠቀ": 6389,
      "ለመቅረ": 6390,
      "ለመላክ": 6391,
      "ለመያዝ": 6392,
      "ለመጠበቅ": 6393,
      "ለመድረስ": 6394,
      "ለመውሰድ": 6395,
      "ለመትከል": 6396,
      "ለመፈለግ": 6397,
      "ለማዳ": 6398,
      "ለማወቅ": 6399,
      "ለማድረስ": 6400,
      "ለማሟላት": 6401,
      "ለማገዝ": 6402,
      "ባለፈ": 6403,
      "ባለብዙ": 6404,
      "በማሊ": 6405,
      "በማጣ": 6406,
      "በማግኘ": 6407,
      "በማካሄድ": 6408,
      "በማስተዋወቅ": 6409,
      "በማጎልበት": 6410,
      "##በርግ": 6411,
      "##በርሊን": 6412,
      "ከተያዘ": 6413,
      "ከተመለሱ": 6414,
      "በሚኒ": 6415,
      "በሚለው": 6416,
      "በሚሊዮን": 6417,
      "በሚገቡ": 6418,
      "ምክሮች": 6419,
      "##ንስፖርት": 6420,
      "ምርቱን": 6421,
      "ምርታማ": 6422,
      "ምርቶቹን": 6423,
      "አካዳሚ": 6424,
      "እንደሚችሉ": 6425,
      "እንዳገኙ": 6426,
      "እንዳሳወ": 6427,
      "የማሳ": 6428,
      "የማእ": 6429,
      "የማዳን": 6430,
      "የማስፋ": 6431,
      "የማጥፋት": 6432,
      "የማምረት": 6433,
      "እየመረ": 6434,
      "እየወሰደ": 6435,
      "##ስተማር": 6436,
      "##ስተማሩ": 6437,
      "የእዳ": 6438,
      "የእርዳታ": 6439,
      "እስያ": 6440,
      "አቅዷል": 6441,
      "አቅጣጫ": 6442,
      "የሚያገለ": 6443,
      "##ገድድ": 6444,
      "ከተማን": 6445,
      "##ልጣል": 6446,
      "መንጋ": 6447,
      "አገራት": 6448,
      "ሚኒስትሯ": 6449,
      "ሚኒስትሩን": 6450,
      "አውሮፓ": 6451,
      "ግንቦት": 6452,
      "##ብርሃን": 6453,
      "ከአስር": 6454,
      "ከአካባቢው": 6455,
      "የኢራ": 6456,
      "የኢራቅ": 6457,
      "የኢኖቬሽን": 6458,
      "ያለማ": 6459,
      "##መረብ": 6460,
      "##ክስፖርት": 6461,
      "አስተማማ": 6462,
      "አስተዳደ": 6463,
      "አስተያየት": 6464,
      "አስተዳዳሪ": 6465,
      "መስጫ": 6466,
      "መስቀል": 6467,
      "መስጊድ": 6468,
      "በኢትዮጵያውያን": 6469,
      "ክልከላ": 6470,
      "የነብዩ": 6471,
      "##ይናማር": 6472,
      "የምን": 6473,
      "የምና": 6474,
      "አምስተኛው": 6475,
      "አምናለሁ": 6476,
      "##ሰብሰብ": 6477,
      "ኢንደስት": 6478,
      "ኢንተለ": 6479,
      "ኢንፋንቲ": 6480,
      "የውሸት": 6481,
      "##ነሳት": 6482,
      "በኋላም": 6483,
      "##መንገድ": 6484,
      "##መንዌልዝ": 6485,
      "##ባትም": 6486,
      "##ከትላል": 6487,
      "አካባቢን": 6488,
      "አደሩ": 6489,
      "አደሮች": 6490,
      "##ርክቲካ": 6491,
      "በሰኔ": 6492,
      "በሰጠው": 6493,
      "ውድቅ": 6494,
      "የግምገማ": 6495,
      "##ሎጂስቶች": 6496,
      "##ስቲያን": 6497,
      "በምር": 6498,
      "በምስራቃዊ": 6499,
      "አልፈው": 6500,
      "አልጄሪያ": 6501,
      "አልሸባብ": 6502,
      "ስራውን": 6503,
      "##ግራፍ": 6504,
      "##ግራቸው": 6505,
      "##ግራለች": 6506,
      "##ብረቱ": 6507,
      "ቀንን": 6508,
      "ቀንሷል": 6509,
      "የስፖርት": 6510,
      "የስደተኞች": 6511,
      "የስዊስ": 6512,
      "##መርቱ": 6513,
      "የሰጡት": 6514,
      "##ዘጋጁ": 6515,
      "ደረጃዎች": 6516,
      "አይቲ": 6517,
      "አይችሉ": 6518,
      "##ራንን": 6519,
      "ተገዷል": 6520,
      "አሳየ": 6521,
      "አንዲ": 6522,
      "አንቂ": 6523,
      "አንበጣ": 6524,
      "አንጋፋ": 6525,
      "ክፍለ": 6526,
      "የወባ": 6527,
      "የወሲብ": 6528,
      "እየተከናወ": 6529,
      "እየተስፋፋ": 6530,
      "እየተጠጋ": 6531,
      "የባሌ": 6532,
      "የባቡር": 6533,
      "ሁኔታው": 6534,
      "አባይ": 6535,
      "አሸብር": 6536,
      "አሸንዳ": 6537,
      "አሸነፉ": 6538,
      "እርስ": 6539,
      "እርግ": 6540,
      "##ደንታዊ": 6541,
      "##ደንጋጭ": 6542,
      "193": 6543,
      "መርስ": 6544,
      "ኩባንያዎችን": 6545,
      "የቀብር": 6546,
      "##ዳንታዊ": 6547,
      "ወቅታዊ": 6548,
      "2030": 6549,
      "በስነ": 6550,
      "በስኬታማ": 6551,
      "ተናግራለች": 6552,
      "አድርሷል": 6553,
      "አድርገው": 6554,
      "የካና": 6555,
      "የካሊፎርኒያ": 6556,
      "የካምቦ": 6557,
      "በእስ": 6558,
      "በእሳት": 6559,
      "የገና": 6560,
      "የገባው": 6561,
      "ማዕዘ": 6562,
      "የኮር": 6563,
      "ፕሬዚዳን": 6564,
      "ተወዳጅ": 6565,
      "ተወዳዳሪ": 6566,
      "ተወልደ": 6567,
      "አቶሚክ": 6568,
      "እያስ": 6569,
      "እያደረጉ": 6570,
      "እድሳት": 6571,
      "የታሪፍ": 6572,
      "የታሊባን": 6573,
      "##ልምና": 6574,
      "##ግባቡ": 6575,
      "##ግባቱ": 6576,
      "##ግባኝ": 6577,
      "##ግባለች": 6578,
      "##ግባባት": 6579,
      "በግሪክ": 6580,
      "አለን": 6581,
      "አለማ": 6582,
      "አለበት": 6583,
      "አመፅ": 6584,
      "አመልክ": 6585,
      "አመላከተ": 6586,
      "ከመጠን": 6587,
      "ለአሜሪካ": 6588,
      "ለአየር": 6589,
      "ለአምስት": 6590,
      "ሳምሰንግ": 6591,
      "አፍሪካው": 6592,
      "አፍሪካዊ": 6593,
      "ስምምነቶች": 6594,
      "በታዳጊ": 6595,
      "አየርመንገድ": 6596,
      "መልዕ": 6597,
      "መልካም": 6598,
      "የብድር": 6599,
      "የብቃት": 6600,
      "የአለምን": 6601,
      "የዩኬ": 6602,
      "የዩክሬ": 6603,
      "እንዲያስ": 6604,
      "እንዲያደርግ": 6605,
      "እንዲያቆሙ": 6606,
      "ብዙዎች": 6607,
      "ከሚችል": 6608,
      "##ርካንሳስ": 6609,
      "በመቶውን": 6610,
      "ለተሰንበት": 6611,
      "በኢትዮ": 6612,
      "በኢራቅ": 6613,
      "አርኪኦ": 6614,
      "##ላንዱ": 6615,
      "##ኤስኢ": 6616,
      "##ኤስኤስ": 6617,
      "ሁለንተ": 6618,
      "ስለሚ": 6619,
      "ስለተ": 6620,
      "ስለዚህ": 6621,
      "ስለዚህም": 6622,
      "በሽታዎችን": 6623,
      "አለምን": 6624,
      "የሞባይል": 6625,
      "ምክርቤት": 6626,
      "ግንኙነትን": 6627,
      "ግብሮች": 6628,
      "ግብሮችን": 6629,
      "ፓርቲው": 6630,
      "ለውጭ": 6631,
      "ሳይንቲ": 6632,
      "በካሜ": 6633,
      "ንግግ": 6634,
      "ንግግራቸው": 6635,
      "አህመ": 6636,
      "አሜሪካን": 6637,
      "##ገባም": 6638,
      "የሙቀት": 6639,
      "የሙከራ": 6640,
      "የሙስሊ": 6641,
      "የኤም": 6642,
      "የኤሌክትሮኒክስ": 6643,
      "ጨዋታዎችን": 6644,
      "##ጠበቀው": 6645,
      "በዓሉ": 6646,
      "የፖላንድ": 6647,
      "##ገደች": 6648,
      "መንግስታዊ": 6649,
      "የሚያስችሉ": 6650,
      "የሚያስችለውን": 6651,
      "የሚያስገድድ": 6652,
      "ህይወቷ": 6653,
      "ህይወታቸው": 6654,
      "ሌሎችም": 6655,
      "##ቀርበው": 6656,
      "በጣሊያን": 6657,
      "የፍቅር": 6658,
      "ያስከትላል": 6659,
      "##ርስቶ": 6660,
      "##ጀንሲው": 6661,
      "ባለስልጣኑ": 6662,
      "ምርጫው": 6663,
      "እርምጃዎች": 6664,
      "ቤተመ": 6665,
      "ቤተክር": 6666,
      "የክሮም": 6667,
      "የክፍያ": 6668,
      "እንቅስቃሴዎች": 6669,
      "ሲያከብሩ": 6670,
      "በረዶ": 6671,
      "ተከፍ": 6672,
      "ፓርኩ": 6673,
      "##ስቲቫሉ": 6674,
      "ኃላፊው": 6675,
      "ኃላፊነቱን": 6676,
      "ኤጀንሲዎች": 6677,
      "##ዲያና": 6678,
      "በአውሎ": 6679,
      "በነሀሴ": 6680,
      "በ2019": 6681,
      "በቅርብ": 6682,
      "ተጠቂ": 6683,
      "ተጠባባ": 6684,
      "አማፂ": 6685,
      "##መቻቸ": 6686,
      "##ዘርፉ": 6687,
      "የሚጠይቅ": 6688,
      "ለውጥን": 6689,
      "ተጫዋቾች": 6690,
      "በብራ": 6691,
      "ተቋሙ": 6692,
      "አድሃ": 6693,
      "የፀጥታው": 6694,
      "ጥያቄውን": 6695,
      "ህዝባዊ": 6696,
      "ስብስብ": 6697,
      "በትላንትናው": 6698,
      "በየአ": 6699,
      "በየቀኑ": 6700,
      "ተግባር": 6701,
      "ተግባራት": 6702,
      "ከሰሰ": 6703,
      "የቱኒዚያ": 6704,
      "የጠፉ": 6705,
      "##ቅድመ": 6706,
      "##ፍትዌር": 6707,
      "ለማስጀመር": 6708,
      "ለማስፈን": 6709,
      "ለማስቻል": 6710,
      "ባለሥልጣናትን": 6711,
      "ሁለተኛውን": 6712,
      "በኤቦላ": 6713,
      "በኤንቢኤ": 6714,
      "ኃይሌ": 6715,
      "ውይይ": 6716,
      "የልብ": 6717,
      "የልህቀት": 6718,
      "የልዑካን": 6719,
      "የ2014": 6720,
      "የ2017": 6721,
      "የ2018": 6722,
      "##ላለፉ": 6723,
      "##ስተዋወ": 6724,
      "መድሃኒ": 6725,
      "በጥቅምት": 6726,
      "በኮሪያ": 6727,
      "ታሪክን": 6728,
      "አዳማ": 6729,
      "አግኝ": 6730,
      "ገብተው": 6731,
      "##ጠናቀቀው": 6732,
      "##ሞክራቶች": 6733,
      "150": 6734,
      "መድረሱን": 6735,
      "በሳውዲ": 6736,
      "በሳምንት": 6737,
      "በድሬዳዋ": 6738,
      "በ10": 6739,
      "ኢኮኖሚውን": 6740,
      "ደንና": 6741,
      "ለማሳየት": 6742,
      "ለማሳካት": 6743,
      "##ደርጉት": 6744,
      "ዝግጅቱ": 6745,
      "ዝግጅቶችን": 6746,
      "በበሽታው": 6747,
      "በበዓሉ": 6748,
      "አክሏል": 6749,
      "ከነማ": 6750,
      "ከነበሩ": 6751,
      "የሩዋንዳ": 6752,
      "ያሳድ": 6753,
      "ያሳያሉ": 6754,
      "ይችላሉ": 6755,
      "በአማርኛ": 6756,
      "ባለሙያ": 6757,
      "ማእከላዊ": 6758,
      "ችግኞች": 6759,
      "ደህንነትን": 6760,
      "##ወሰነ": 6761,
      "የአይምሮ": 6762,
      "የመጨረሻውን": 6763,
      "የተሰኘውን": 6764,
      "ማክሮ": 6765,
      "በራስ": 6766,
      "በራሺያ": 6767,
      "በራግቢ": 6768,
      "የሃይል": 6769,
      "##ካትት": 6770,
      "##ሰረተ": 6771,
      "##ኳንዶ": 6772,
      "እንዳለበት": 6773,
      "ትልቁን": 6774,
      "መኖር": 6775,
      "መኖሩን": 6776,
      "መኖራቸው": 6777,
      "ሚሊዮኖች": 6778,
      "ምንዛሪ": 6779,
      "አዲሱን": 6780,
      "የሳውዲ": 6781,
      "ይዘው": 6782,
      "ይዘቶችን": 6783,
      "##ደራሉ": 6784,
      "##ድሮክ": 6785,
      "የተቀናጀ": 6786,
      "የመጣው": 6787,
      "አሸናፊዎች": 6788,
      "ማንኛውን": 6789,
      "ተደርገዋል": 6790,
      "ዘግበዋል": 6791,
      "የ10": 6792,
      "የ14": 6793,
      "##በልጡ": 6794,
      "##ስተናገደች": 6795,
      "2022": 6796,
      "በውጤ": 6797,
      "በውይይቱ": 6798,
      "በጎልፍ": 6799,
      "በደህንነት": 6800,
      "የዲፕሎማ": 6801,
      "የቆዳ": 6802,
      "የቆየ": 6803,
      "የቤል": 6804,
      "የኒውዮርክ": 6805,
      "##ነባበሪያ": 6806,
      "ልምም": 6807,
      "ልምምድ": 6808,
      "መውሊድ": 6809,
      "ምልክት": 6810,
      "ምልከታ": 6811,
      "ስትሆን": 6812,
      "በቴክሳስ": 6813,
      "ባልተ": 6814,
      "ባልደረ": 6815,
      "ተፈራረመ": 6816,
      "ትንሽ": 6817,
      "አዘጋጆች": 6818,
      "ኤንቢኤ": 6819,
      "ከእን": 6820,
      "ከእስር": 6821,
      "ዘርፌ": 6822,
      "የሕግ": 6823,
      "##ማይካ": 6824,
      "እንድታ": 6825,
      "ሽልማቱን": 6826,
      "ሽልማቶችን": 6827,
      "የሩሲያው": 6828,
      "ማሻሻያዎችን": 6829,
      "ማስተካ": 6830,
      "ማስተባ": 6831,
      "ቀጥለዋል": 6832,
      "በኒውዮርክ": 6833,
      "ተሳፋሪዎች": 6834,
      "ተጠቃሚዎች": 6835,
      "ከስምንት": 6836,
      "ዘመቻው": 6837,
      "የዕፅዋት": 6838,
      "##ሊፎርንያ": 6839,
      "የማህበሩ": 6840,
      "በረራዎች": 6841,
      "በሴቶች": 6842,
      "በፊፋ": 6843,
      "በስተቀር": 6844,
      "በስተጀርባ": 6845,
      "በስተሰሜን": 6846,
      "አፈጻጸ": 6847,
      "ጀርባ": 6848,
      "ገበያውን": 6849,
      "##ሰልጠን": 6850,
      "##ፈጸመ": 6851,
      "##ፈጸመው": 6852,
      "የሚተዳደረ": 6853,
      "አስተዋፅዖ": 6854,
      "ኢንቨስትመንትን": 6855,
      "ማለትም": 6856,
      "ሰላሳ": 6857,
      "ስፍራዎች": 6858,
      "ቀጣዩ": 6859,
      "ቅርንጫ": 6860,
      "በፓኪስታን": 6861,
      "በፓርላማ": 6862,
      "ተራሮች": 6863,
      "አወዛጋቢ": 6864,
      "አዛለች": 6865,
      "ከውጭ": 6866,
      "ከውጪ": 6867,
      "ከታህሳስ": 6868,
      "የጋዝ": 6869,
      "የድርጅቱን": 6870,
      "ፈጣሪ": 6871,
      "ፊልሞች": 6872,
      "ፊልሞችን": 6873,
      "##ሚንቶ": 6874,
      "##ልካቾች": 6875,
      "የሚገመቱ": 6876,
      "የአልቃይዳ": 6877,
      "እየሰራች": 6878,
      "የታቀደውን": 6879,
      "አጠቃቀምን": 6880,
      "ማቀነባበሪያ": 6881,
      "ሰጠች": 6882,
      "ቁርጠኛ": 6883,
      "ቁርጠኝነት": 6884,
      "በዘመናዊ": 6885,
      "ቤንሻንጉል": 6886,
      "ቤንጃሚን": 6887,
      "ብራውን": 6888,
      "ተፅዕኖ": 6889,
      "ተቆጣጠሩ": 6890,
      "ትርጉ": 6891,
      "አጥማ": 6892,
      "ወጪዎችን": 6893,
      "የፕሮጀ": 6894,
      "የፕላስቲ": 6895,
      "የንጉ": 6896,
      "የኖቭል": 6897,
      "የቢዝነስ": 6898,
      "ገድለው": 6899,
      "ጠይቋል": 6900,
      "ጠይቃለች": 6901,
      "ጳጳሳት": 6902,
      "##ዳዳሪዎች": 6903,
      "##ገረዶች": 6904,
      "##ናይጄሪያ": 6905,
      "##ክሮሶ": 6906,
      "በመስራት": 6907,
      "በመስከረም": 6908,
      "የምትገኘው": 6909,
      "የምርጫ": 6910,
      "በኢንተር": 6911,
      "በኢንዶኔዥያ": 6912,
      "ለወደፊት": 6913,
      "ምህረት": 6914,
      "ተዘግተዋል": 6915,
      "ተዘግቧል": 6916,
      "ታይገር": 6917,
      "ታይዋን": 6918,
      "አነስተኛና": 6919,
      "ወስኗል": 6920,
      "የለሽ": 6921,
      "የያዘው": 6922,
      "ግልፅ": 6923,
      "ጠየቁ": 6924,
      "##ካሪው": 6925,
      "##ደጋጋሚ": 6926,
      "##ወለዱ": 6927,
      "##ወስድ": 6928,
      "##ከፋፈ": 6929,
      "##ከፋፈል": 6930,
      "##ሽከርካሪ": 6931,
      "##ገናኘት": 6932,
      "ውጤታማነት": 6933,
      "በ199": 6934,
      "መሣሪያዎች": 6935,
      "ለስድስት": 6936,
      "ሕዝቦች": 6937,
      "መጽሃ": 6938,
      "መጽሐፍት": 6939,
      "መኮን": 6940,
      "መገኘቱን": 6941,
      "ቅድሚያ": 6942,
      "በክልል": 6943,
      "ተደራሽነት": 6944,
      "ትእይን": 6945,
      "ትእዛዝ": 6946,
      "አራተኛ": 6947,
      "እጩዎች": 6948,
      "ከስራው": 6949,
      "የቡድ": 6950,
      "የቡድን": 6951,
      "ጆርጅ": 6952,
      "ገብረሚካኤል": 6953,
      "ፈረንሣይ": 6954,
      "ፓርክን": 6955,
      "##ከፈተው": 6956,
      "በመጀመሪያው": 6957,
      "የመንገደ": 6958,
      "ለመክፈል": 6959,
      "የእንቅስቃሴ": 6960,
      "የእንኳን": 6961,
      "ተገናኙ": 6962,
      "የባህልና": 6963,
      "አብዮታዊ": 6964,
      "የቀረበው": 6965,
      "እንደሚያሳድግ": 6966,
      "የክልል": 6967,
      "የተከሰተውን": 6968,
      "##ከታተል": 6969,
      "በ2004": 6970,
      "ህፃን": 6971,
      "ለህዝብ": 6972,
      "ልዑል": 6973,
      "መሃመድ": 6974,
      "መሐንዲ": 6975,
      "በሊቢያ": 6976,
      "ተማሪዎችን": 6977,
      "ነጋዴዎች": 6978,
      "አሌክስ": 6979,
      "አጠናቋል": 6980,
      "ኦፕን": 6981,
      "ኦፕሬሽን": 6982,
      "ከባህር": 6983,
      "ጥራጥሬ": 6984,
      "##ቆመች": 6985,
      "የሚታሰቡ": 6986,
      "የሚቆየውን": 6987,
      "የአፍሮ": 6988,
      "ባለቤቶች": 6989,
      "ወንጀሎች": 6990,
      "ዲዛይነሮች": 6991,
      "ለፍፃሜ": 6992,
      "ለሕዝብ": 6993,
      "ልጃገረዶች": 6994,
      "መገደላቸውን": 6995,
      "ማለፉን": 6996,
      "ስልኮቻቸውን": 6997,
      "በልዩ": 6998,
      "በፌስቲቫሉ": 6999,
      "በዌስት": 7000,
      "በፕሬዚደንት": 7001,
      "አሻራ": 7002,
      "አቋር": 7003,
      "አከባበር": 7004,
      "ካምፓ": 7005,
      "ካፒታል": 7006,
      "ውህደት": 7007,
      "ዩንቨርሲቲ": 7008,
      "ድራማ": 7009,
      "ጉድጓ": 7010,
      "ጌታሁን": 7011,
      "ፓስፖርት": 7012,
      "ፕላኔ": 7013,
      "ፕላኔት": 7014,
      "የሚሆነው": 7015,
      "የሚሆነውን": 7016,
      "የተወለዱ": 7017,
      "በተመሳሳይ": 7018,
      "በተቃውሞ": 7019,
      "የመስቀል": 7020,
      "በማሳየት": 7021,
      "##ስተካከል": 7022,
      "የእስያ": 7023,
      "አውቶቡ": 7024,
      "መስጠቱን": 7025,
      "ሆስፒታሎች": 7026,
      "ክርስቲያናት": 7027,
      "ያቀረበችውን": 7028,
      "ተመረጠች": 7029,
      "ጠየቀች": 7030,
      "መፍትሄዎችን": 7031,
      "ሂውማን": 7032,
      "ሃሪኬን": 7033,
      "ሆልዲንግ": 7034,
      "ለሀገር": 7035,
      "መፍሰስ": 7036,
      "መሆኗን": 7037,
      "ሞቃታማ": 7038,
      "ቁጥራቸው": 7039,
      "በጨዋታው": 7040,
      "በከተማዋ": 7041,
      "ተይዞ": 7042,
      "ተይዘዋል": 7043,
      "ትሪሊዮን": 7044,
      "ንፁሃን": 7045,
      "አቁስለዋል": 7046,
      "አፅድቋል": 7047,
      "ኤግዚቢሽን": 7048,
      "ከጎረቤት": 7049,
      "ከሶስት": 7050,
      "ከ80": 7051,
      "ዘፋኝ": 7052,
      "ዜማዎችን": 7053,
      "የርቀት": 7054,
      "የዱር": 7055,
      "የቲቢ": 7056,
      "የዛፍ": 7057,
      "ግሽበት": 7058,
      "ፈፅመዋል": 7059,
      "##ልፈኞች": 7060,
      "##ንዚዌላ": 7061,
      "##ስክሌት": 7062,
      "የተነደፈ": 7063,
      "ለማስፋፋት": 7064,
      "አውጪዎች": 7065,
      "አስተላለፈ": 7066,
      "በምእራባዊ": 7067,
      "የገቡትን": 7068,
      "የብራዚል": 7069,
      "አማካኝነት": 7070,
      "አማራጭ": 7071,
      "ተቀባይነት": 7072,
      "መድኃኒ": 7073,
      "##ስተናግድ": 7074,
      "ተፈራርሟል": 7075,
      "መሸፈኛ": 7076,
      "ተቆጣጣሪ": 7077,
      "መመርመሪያ": 7078,
      "ሙስሊሙ": 7079,
      "ምዕራፍ": 7080,
      "ሰለሞን": 7081,
      "ስቶር": 7082,
      "ሶልቭ": 7083,
      "ሸለቆ": 7084,
      "ቀሳውስት": 7085,
      "ቀደምት": 7086,
      "በጅቡቲ": 7087,
      "በጸሎት": 7088,
      "በጄኔቫ": 7089,
      "ባስተላለፉት": 7090,
      "ቦይንግ": 7091,
      "ተጎድተዋል": 7092,
      "ተፈርሟል": 7093,
      "አፋጣኝ": 7094,
      "ከምድር": 7095,
      "ከለከለች": 7096,
      "የቶኪዮ": 7097,
      "የቁፋሮ": 7098,
      "የሁል": 7099,
      "ያለችው": 7100,
      "ይበልጣል": 7101,
      "ይቆያል": 7102,
      "ይቀጥላል": 7103,
      "ይጫወታል": 7104,
      "ፍሎሪዳ": 7105,
      "##ምቤላ": 7106,
      "##ጎብኘ": 7107,
      "##ሲሲፒ": 7108,
      "የሚደርሱ": 7109,
      "የአንበጣ": 7110,
      "አስከትሏል": 7111,
      "በመጥቀስ": 7112,
      "እየታገሉ": 7113,
      "አልባሳትን": 7114,
      "##ምፒውተር": 7115,
      "ማህበረሰቦች": 7116,
      "የኮሚኒስት": 7117,
      "እንደሚያመለክተው": 7118,
      "ይገልፃ": 7119,
      "ግብአቶችን": 7120,
      "ያልታሰበ": 7121,
      "የተመልካቾችን": 7122,
      "ሃይማኖታዊ": 7123,
      "የዲዛይን": 7124,
      "ምስጢራዊ": 7125,
      "ይወዳደራል": 7126,
      "##ትላንቲክ": 7127,
      "CVS": 7128,
      "kንk": 7129,
      "ሀረርጌ": 7130,
      "ህወሓት": 7131,
      "ሆሳዕ": 7132,
      "ሊቃነ": 7133,
      "ሎጅስቲክስ": 7134,
      "መኩሪያ": 7135,
      "መሥሪያ": 7136,
      "መሀመድ": 7137,
      "መጠበቂያ": 7138,
      "ሜዳልያ": 7139,
      "ረብሻ": 7140,
      "ስእል": 7141,
      "ሹመቴ": 7142,
      "ቃጠሎ": 7143,
      "በበረዶ": 7144,
      "በፈረንሣይ": 7145,
      "ቢዝነሶች": 7146,
      "ባሕረ": 7147,
      "ቬጋስ": 7148,
      "ተዕለት": 7149,
      "ታዳሚዎች": 7150,
      "ታድመዋል": 7151,
      "ትምህር": 7152,
      "ትሆናለች": 7153,
      "ነጠላ": 7154,
      "ነቀርሳ": 7155,
      "አዝማሚያ": 7156,
      "ኢኳቶሪያል": 7157,
      "ከፊሊፒንስ": 7158,
      "ከኳታር": 7159,
      "ክሊንተን": 7160,
      "ዕርምጃ": 7161,
      "የይዘት": 7162,
      "የቫይረሱን": 7163,
      "ያሸነፈ": 7164,
      "ይቻላል": 7165,
      "ይፈጥራል": 7166,
      "ይደግፋል": 7167,
      "ይቀንሳል": 7168,
      "ዱቴርቴ": 7169,
      "ጋዳፊ": 7170,
      "##ትራኒያን": 7171,
      "##ርቻሮ": 7172,
      "##ረርሽኙ": 7173,
      "##ሪላንካ": 7174,
      "##ቲቾይስ": 7175,
      "##olve": 7176,
      "አስመርቋል": 7177,
      "በመታገዝ": 7178,
      "በተጠረጠሩ": 7179,
      "የመልካም": 7180,
      "ለመቅረፍ": 7181,
      "አስተማማኝ": 7182,
      "ኢንተለጀንስ": 7183,
      "ኢንፋንቲኖ": 7184,
      "የካምቦዲያ": 7185,
      "አመልክተዋል": 7186,
      "አርኪኦሎጂስቶች": 7187,
      "ሁለንተናዊ": 7188,
      "ቤተክርስቲያን": 7189,
      "ተጠባባቂ": 7190,
      "የሚተዳደረው": 7191,
      "የፕላስቲክ": 7192,
      "09": 7193,
      "120": 7194,
      "29": 7195,
      "32": 7196,
      "39": 7197,
      "300": 7198,
      "3000": 7199,
      "54": 7200,
      "56": 7201,
      "64": 7202,
      "67": 7203,
      "6000": 7204,
      "72": 7205,
      "700": 7206,
      "85": 7207,
      "82": 7208,
      "84": 7209,
      "87": 7210,
      "86": 7211,
      "95": 7212,
      "92": 7213,
      "93": 7214,
      "99": 7215,
      "96": 7216,
      "98": 7217,
      "CO": 7218,
      "GD": 7219,
      "HI": 7220,
      "II": 7221,
      "MN": 7222,
      "MA": 7223,
      "PM": 7224,
      "Solve": 7225,
      "WH": 7226,
      "ሀዲ": 7227,
      "ሀይል": 7228,
      "ሀውስ": 7229,
      "ሀሰን": 7230,
      "ሀብቶች": 7231,
      "ሀምሌ": 7232,
      "ሀሙስ": 7233,
      "ሀገሪቷ": 7234,
      "ሂላሪ": 7235,
      "ሃማ": 7236,
      "ሃብ": 7237,
      "ሃንድ": 7238,
      "ሃሙስ": 7239,
      "ሃማስ": 7240,
      "ሃውልት": 7241,
      "ሄር": 7242,
      "ሄፓ": 7243,
      "ሄራል": 7244,
      "ሄሊኮፕተር": 7245,
      "ህጋዊ": 7246,
      "ህገወጥ": 7247,
      "ሆን": 7248,
      "ሆኑ": 7249,
      "ሆንግ": 7250,
      "ለግ": 7251,
      "ለብ": 7252,
      "ለነ": 7253,
      "ለድ": 7254,
      "ለኩ": 7255,
      "ለፌ": 7256,
      "ለሥ": 7257,
      "ለሴ": 7258,
      "ለ5": 7259,
      "ለዛ": 7260,
      "ለዩ": 7261,
      "ለዓ": 7262,
      "ለ6": 7263,
      "ለ8": 7264,
      "ለፊት": 7265,
      "ለ201": 7266,
      "ለ20": 7267,
      "ለንግድ": 7268,
      "ለይታ": 7269,
      "ለወርቅ": 7270,
      "ለሰው": 7271,
      "ለግሉ": 7272,
      "ለጠቅላይ": 7273,
      "ለይቶ": 7274,
      "ለዋልታ": 7275,
      "ሉዊ": 7276,
      "ሊዮ": 7277,
      "ሊጉ": 7278,
      "ሊቢያ": 7279,
      "ሊገኝ": 7280,
      "ሊጠቀም": 7281,
      "ሊካሄድ": 7282,
      "ሊጠፋ": 7283,
      "ሊቀጥል": 7284,
      "ላል": 7285,
      "ላቀ": 7286,
      "ላከ": 7287,
      "ላለው": 7288,
      "ላላቸው": 7289,
      "ላብስ": 7290,
      "ላሳዩት": 7291,
      "ላቦራቶሪ": 7292,
      "ሌሊ": 7293,
      "ሌጋ": 7294,
      "ሌጊ": 7295,
      "ልገ": 7296,
      "ልማ": 7297,
      "ልደ": 7298,
      "ልብ": 7299,
      "ልኡ": 7300,
      "ልታስ": 7301,
      "ሎች": 7302,
      "ሎስ": 7303,
      "ሓርነት": 7304,
      "ሕይወ": 7305,
      "ሕክምና": 7306,
      "ሕጋዊ": 7307,
      "መሳ": 7308,
      "መለ": 7309,
      "መበ": 7310,
      "መጫ": 7311,
      "መቻ": 7312,
      "መኢ": 7313,
      "መዛ": 7314,
      "መጸ": 7315,
      "መዓ": 7316,
      "መንስ": 7317,
      "መስተ": 7318,
      "መዘጋጀ": 7319,
      "መያዝ": 7320,
      "መገንባት": 7321,
      "መሻሻል": 7322,
      "መጠበቅ": 7323,
      "መከታተ": 7324,
      "መስተዳ": 7325,
      "መፈንቅለ": 7326,
      "ሙሳ": 7327,
      "ሙአ": 7328,
      "ሙቀት": 7329,
      "ሙስና": 7330,
      "ሙያዊ": 7331,
      "ሙፍቲ": 7332,
      "ሚር": 7333,
      "ሚግ": 7334,
      "ሚያ": 7335,
      "ሚጌ": 7336,
      "ሚስት": 7337,
      "ሚድሮክ": 7338,
      "ማሊ": 7339,
      "ማግ": 7340,
      "ማጨ": 7341,
      "ማውን": 7342,
      "ማሪያ": 7343,
      "ማርት": 7344,
      "ማጠና": 7345,
      "ማነስ": 7346,
      "ማግኘ": 7347,
      "ማዘጋጀት": 7348,
      "ማጠራ": 7349,
      "ማቋቋም": 7350,
      "ማረጋገጥ": 7351,
      "ማሰራጨ": 7352,
      "ማርያም": 7353,
      "ማድሪ": 7354,
      "ማሽኖች": 7355,
      "ማቨን": 7356,
      "ማፍረስ": 7357,
      "ሜት": 7358,
      "ሜዲ": 7359,
      "ምድ": 7360,
      "ምእ": 7361,
      "ምቶች": 7362,
      "ሞራ": 7363,
      "ሞዴ": 7364,
      "ሞቅ": 7365,
      "ሞክ": 7366,
      "ሞንት": 7367,
      "ሞገድ": 7368,
      "ሞቷል": 7369,
      "ሞራል": 7370,
      "ሞቃት": 7371,
      "ሞንታ": 7372,
      "ሞባይል": 7373,
      "ሞዛምቢክ": 7374,
      "ሞሃመድ": 7375,
      "ሠራተ": 7376,
      "ሥጋ": 7377,
      "ሥልጣን": 7378,
      "ሥላሴ": 7379,
      "ሦስተኛው": 7380,
      "ረድ": 7381,
      "ረጅም": 7382,
      "ሩድ": 7383,
      "ሪቭ": 7384,
      "ሪቪ": 7385,
      "ሪኮ": 7386,
      "ሪፑ": 7387,
      "ራሱ": 7388,
      "ራሱን": 7389,
      "ራሷን": 7390,
      "ርካ": 7391,
      "ርቀው": 7392,
      "ሮም": 7393,
      "ሮክ": 7394,
      "ሮቨር": 7395,
      "ሮድሪ": 7396,
      "ሯጭ": 7397,
      "ሰይ": 7398,
      "ሰማ": 7399,
      "ሰዋ": 7400,
      "ሰባ": 7401,
      "ሰሪ": 7402,
      "ሰበረ": 7403,
      "ሰራዊ": 7404,
      "ሰፈር": 7405,
      "ሰንሰ": 7406,
      "ሰደድ": 7407,
      "ሰራዊቱ": 7408,
      "ሰረዘ": 7409,
      "ሰልፈኞች": 7410,
      "ሲፈ": 7411,
      "ሲዲ": 7412,
      "ሲስተ": 7413,
      "ሲገድ": 7414,
      "ሲሳይ": 7415,
      "ሲሰጥ": 7416,
      "ሲደርስ": 7417,
      "ሲካሄድ": 7418,
      "ሲገልጽ": 7419,
      "ሲሚንቶ": 7420,
      "ሳራ": 7421,
      "ሳት": 7422,
      "ሳን": 7423,
      "ሳለ": 7424,
      "ሳር": 7425,
      "ሳጥ": 7426,
      "ሳንባ": 7427,
      "ሴራ": 7428,
      "ሴቶችን": 7429,
      "ሴንቲ": 7430,
      "ስቱ": 7431,
      "ስደ": 7432,
      "ስሙ": 7433,
      "ስድ": 7434,
      "ስቲ": 7435,
      "ስነስ": 7436,
      "ስፖርት": 7437,
      "ስሞክ": 7438,
      "ስትሮ": 7439,
      "ስኳር": 7440,
      "ስባለች": 7441,
      "ስዕል": 7442,
      "ሶሊ": 7443,
      "ሶላር": 7444,
      "ሶልፍ": 7445,
      "ሶማሌ": 7446,
      "ሸል": 7447,
      "ሸቀ": 7448,
      "ሸራተ": 7449,
      "ሹማ": 7450,
      "ሺን": 7451,
      "ሺዴ": 7452,
      "ሺና": 7453,
      "ሺዎች": 7454,
      "ሻንግ": 7455,
      "ሽን": 7456,
      "ቀሚ": 7457,
      "ቀው": 7458,
      "ቀድ": 7459,
      "ቀሩ": 7460,
      "ቀዶ": 7461,
      "ቀኑ": 7462,
      "ቀለም": 7463,
      "ቀረበ": 7464,
      "ቀረቡ": 7465,
      "ቁልፍ": 7466,
      "ቁፋሮ": 7467,
      "ቃና": 7468,
      "ቃላት": 7469,
      "ቅኝ": 7470,
      "ቅጥር": 7471,
      "ቅድስት": 7472,
      "ቅናሽ": 7473,
      "ቅጣትን": 7474,
      "ቆር": 7475,
      "ቆጵ": 7476,
      "ቆሟል": 7477,
      "ቆመው": 7478,
      "ቆስሏል": 7479,
      "በን": 7480,
      "በዱ": 7481,
      "በዙ": 7482,
      "በና": 7483,
      "በሉ": 7484,
      "በሻ": 7485,
      "በቅ": 7486,
      "በሂ": 7487,
      "በኒ": 7488,
      "በኪ": 7489,
      "በቆ": 7490,
      "በቲ": 7491,
      "በፖ": 7492,
      "በቮ": 7493,
      "በሐ": 7494,
      "በጓ": 7495,
      "በኡ": 7496,
      "በስት": 7497,
      "በንግ": 7498,
      "በድረ": 7499,
      "በብር": 7500,
      "በጠን": 7501,
      "በቀጥ": 7502,
      "በላን": 7503,
      "በንግድ": 7504,
      "በደረሰ": 7505,
      "በፎር": 7506,
      "በዚያ": 7507,
      "በዳይ": 7508,
      "በሻን": 7509,
      "በጅምላ": 7510,
      "በ40": 7511,
      "በ94": 7512,
      "በቅን": 7513,
      "በቢል": 7514,
      "በኔፓል": 7515,
      "በሁለተኛው": 7516,
      "በጆር": 7517,
      "በበርሊን": 7518,
      "በናይጄሪያ": 7519,
      "ቡሬ": 7520,
      "ቡር": 7521,
      "ቢል": 7522,
      "ቢፒ": 7523,
      "ቢመስ": 7524,
      "ባው": 7525,
      "ባሳ": 7526,
      "ባማ": 7527,
      "ባዩ": 7528,
      "ባሕር": 7529,
      "ባነሰ": 7530,
      "ባፋና": 7531,
      "ቤይ": 7532,
      "ቤኒ": 7533,
      "ቤላሩስ": 7534,
      "ብሬ": 7535,
      "ብት": 7536,
      "ብስ": 7537,
      "ብዬ": 7538,
      "ብሪ": 7539,
      "ብሩ": 7540,
      "ብክ": 7541,
      "ብክለ": 7542,
      "ብጥብ": 7543,
      "ብሩስ": 7544,
      "ቦል": 7545,
      "ቦም": 7546,
      "ቦሪ": 7547,
      "ቦርድ": 7548,
      "ቪዛ": 7549,
      "ቪድዮ": 7550,
      "ቫን": 7551,
      "ቫሪያ": 7552,
      "ቫቲካን": 7553,
      "ተላ": 7554,
      "ተደ": 7555,
      "ተጨ": 7556,
      "ተተ": 7557,
      "ተዛ": 7558,
      "ተሀ": 7559,
      "ተሾ": 7560,
      "ተከል": 7561,
      "ተመት": 7562,
      "ተለያ": 7563,
      "ተካሄ": 7564,
      "ተከሰ": 7565,
      "ተሞክ": 7566,
      "ተባይ": 7567,
      "ተክለ": 7568,
      "ተጀመረ": 7569,
      "ተከሰተ": 7570,
      "ተፈና": 7571,
      "ተፈጠረ": 7572,
      "ተጠናቀቀ": 7573,
      "ተባባሪ": 7574,
      "ተፈረደ": 7575,
      "ተፋሰስ": 7576,
      "ተመለሰ": 7577,
      "ተሃድሶ": 7578,
      "ቱሆ": 7579,
      "ቱፋ": 7580,
      "ቱርክ": 7581,
      "ቲያ": 7582,
      "ቲቢ": 7583,
      "ቲዩ": 7584,
      "ታቅ": 7585,
      "ታሪ": 7586,
      "ታየ": 7587,
      "ታዛ": 7588,
      "ታይም": 7589,
      "ታከለ": 7590,
      "ታሰሩ": 7591,
      "ታይቷል": 7592,
      "ታዳሚ": 7593,
      "ታምሩ": 7594,
      "ታንዛ": 7595,
      "ቴአ": 7596,
      "ቴዎ": 7597,
      "ቴሪ": 7598,
      "ቴሬሳ": 7599,
      "ቴኳንዶ": 7600,
      "ትረም": 7601,
      "ትግል": 7602,
      "ትሪዮ": 7603,
      "ትናን": 7604,
      "ትችት": 7605,
      "ቶኒ": 7606,
      "ቶኪዮ": 7607,
      "ቶሚዛዋ": 7608,
      "ቻን": 7609,
      "ቻር": 7610,
      "ቻንስ": 7611,
      "ችሏል": 7612,
      "ነን": 7613,
      "ነቢ": 7614,
      "ኑር": 7615,
      "ኑሮ": 7616,
      "ኒውስ": 7617,
      "ናት": 7618,
      "ናዳ": 7619,
      "ናሁ": 7620,
      "ናዛ": 7621,
      "ኔት": 7622,
      "ኔዘርላንድ": 7623,
      "ንድ": 7624,
      "ንጹ": 7625,
      "ንጥረ": 7626,
      "ኖኪያ": 7627,
      "አፕ": 7628,
      "አጎ": 7629,
      "አቃ": 7630,
      "አጣ": 7631,
      "አና": 7632,
      "አጫ": 7633,
      "አሞ": 7634,
      "አቻ": 7635,
      "አየ": 7636,
      "አሥ": 7637,
      "አቤ": 7638,
      "አንስ": 7639,
      "አበረ": 7640,
      "አርት": 7641,
      "አድረ": 7642,
      "አባት": 7643,
      "አላት": 7644,
      "አላቸው": 7645,
      "አሉት": 7646,
      "አቦት": 7647,
      "አዋቂ": 7648,
      "አከራ": 7649,
      "አቻቸው": 7650,
      "አሽከርካሪዎች": 7651,
      "አደረጃ": 7652,
      "አብረው": 7653,
      "አክሲዮን": 7654,
      "አደርጋ": 7655,
      "ኡማ": 7656,
      "ኡሉ": 7657,
      "ኡጋንዳ": 7658,
      "ኢሳ": 7659,
      "ኢራ": 7660,
      "ኢማ": 7661,
      "ኢዴ": 7662,
      "ኢኒ": 7663,
      "ኢላማ": 7664,
      "ኢአር": 7665,
      "ኢሊት": 7666,
      "ኤድ": 7667,
      "ኤክ": 7668,
      "ኤንድ": 7669,
      "ኤኮኖሚ": 7670,
      "እም": 7671,
      "እዳ": 7672,
      "እዮ": 7673,
      "እኔ": 7674,
      "እሸ": 7675,
      "እላፊ": 7676,
      "እህል": 7677,
      "እጥረ": 7678,
      "እሴት": 7679,
      "እሳቸው": 7680,
      "እለቱ": 7681,
      "ኦቢኤ": 7682,
      "ኦስካር": 7683,
      "ኦንላይን": 7684,
      "ከካ": 7685,
      "ከራ": 7686,
      "ከገ": 7687,
      "ከሮ": 7688,
      "ከሙ": 7689,
      "ከብ": 7690,
      "ከጋ": 7691,
      "ከቫ": 7692,
      "ከከ": 7693,
      "ከኤ": 7694,
      "ከሞ": 7695,
      "ከሌ": 7696,
      "ከቴ": 7697,
      "ከጉ": 7698,
      "ከ9": 7699,
      "ከዓ": 7700,
      "ከሆኑ": 7701,
      "ከድን": 7702,
      "ከሰብ": 7703,
      "ከጤና": 7704,
      "ከደን": 7705,
      "ከገደ": 7706,
      "ከኒው": 7707,
      "ከወርቅ": 7708,
      "ከካር": 7709,
      "ከግል": 7710,
      "ከጠፋ": 7711,
      "ከ30": 7712,
      "ከደረሰበት": 7713,
      "ከፖሊ": 7714,
      "ከበርካታ": 7715,
      "ከሦስት": 7716,
      "ከ500": 7717,
      "ከንክ": 7718,
      "ኩባ": 7719,
      "ኩዌት": 7720,
      "ኪዩ": 7721,
      "ኪራይ": 7722,
      "ካን": 7723,
      "ካፌ": 7724,
      "ካሽ": 7725,
      "ካቴ": 7726,
      "ካደረገ": 7727,
      "ካገኘ": 7728,
      "ካደረጉ": 7729,
      "ካርድ": 7730,
      "ካላት": 7731,
      "ካላቸው": 7732,
      "ካምፕ": 7733,
      "ካቡል": 7734,
      "ኬፕ": 7735,
      "ኬን": 7736,
      "ኬላ": 7737,
      "ክብ": 7738,
      "ክራይ": 7739,
      "ክብካቤ": 7740,
      "ክረምት": 7741,
      "ክርስቶ": 7742,
      "ኮል": 7743,
      "ኮም": 7744,
      "ኮና": 7745,
      "ኮድ": 7746,
      "ኮኬ": 7747,
      "ኮሌ": 7748,
      "ኮማን": 7749,
      "ኮርስ": 7750,
      "ኮከብ": 7751,
      "ኮይካ": 7752,
      "ወያ": 7753,
      "ወተዋል": 7754,
      "ወዲያ": 7755,
      "ወይስ": 7756,
      "ወለል": 7757,
      "ወድቋል": 7758,
      "ዊል": 7759,
      "ዊት": 7760,
      "ዊሊያ": 7761,
      "ዋት": 7762,
      "ዋይ": 7763,
      "ዋለ": 7764,
      "ዋንግ": 7765,
      "ዋሽንግተን": 7766,
      "ዌስት": 7767,
      "ውል": 7768,
      "ውር": 7769,
      "ውበት": 7770,
      "ውቅር": 7771,
      "ዎል": 7772,
      "ዎልፍ": 7773,
      "ዒላማ": 7774,
      "ዓረ": 7775,
      "ዓይነት": 7776,
      "ዕፅ": 7777,
      "ዘፈ": 7778,
      "ዘይ": 7779,
      "ዘዴ": 7780,
      "ዘና": 7781,
      "ዘሩ": 7782,
      "ዘጠና": 7783,
      "ዘጠነ": 7784,
      "ዘዴዎች": 7785,
      "ዙማ": 7786,
      "ዙፋን": 7787,
      "ዚያንግ": 7788,
      "ዜና": 7789,
      "ዜጋ": 7790,
      "የጀ": 7791,
      "የቸ": 7792,
      "የሉ": 7793,
      "የዚ": 7794,
      "የየ": 7795,
      "የዜ": 7796,
      "የጁ": 7797,
      "የጳ": 7798,
      "የትን": 7799,
      "የለው": 7800,
      "የሆን": 7801,
      "የስቴ": 7802,
      "የጥር": 7803,
      "የኋላ": 7804,
      "የቨር": 7805,
      "የሁለት": 7806,
      "የደም": 7807,
      "የቁጥጥር": 7808,
      "የቃል": 7809,
      "የሁለተኛ": 7810,
      "የላቀ": 7811,
      "የፔን": 7812,
      "የሁለቱ": 7813,
      "የሎስ": 7814,
      "የበርካታ": 7815,
      "የኒሳ": 7816,
      "የሦስት": 7817,
      "የጄኔ": 7818,
      "የሬድ": 7819,
      "የኔፓል": 7820,
      "የጸጥታ": 7821,
      "ዩኢ": 7822,
      "ዩክሬ": 7823,
      "ዩኤን": 7824,
      "ዩትዩብ": 7825,
      "ያሰ": 7826,
      "ያግ": 7827,
      "ያሏ": 7828,
      "ያለም": 7829,
      "ያመለ": 7830,
      "ያብራ": 7831,
      "ያደረገውን": 7832,
      "ያሬድ": 7833,
      "ያመለክ": 7834,
      "ያተኩ": 7835,
      "ያፀድ": 7836,
      "ያስተናግ": 7837,
      "ያካሂ": 7838,
      "ያስተማሩ": 7839,
      "ያጠናቀቀው": 7840,
      "ይዳ": 7841,
      "ይጎ": 7842,
      "ይመ": 7843,
      "ይንግ": 7844,
      "ይላል": 7845,
      "ይፈል": 7846,
      "ይጠናቀ": 7847,
      "ይረዳ": 7848,
      "ይቆጣጠ": 7849,
      "ይወስ": 7850,
      "ይከፍ": 7851,
      "ይናገ": 7852,
      "ይዟል": 7853,
      "ደሳ": 7854,
      "ደም": 7855,
      "ደጀ": 7856,
      "ደጃ": 7857,
      "ደፋር": 7858,
      "ደምድ": 7859,
      "ዲያ": 7860,
      "ዲኤ": 7861,
      "ዲጂ": 7862,
      "ዲቴ": 7863,
      "ዲጄ": 7864,
      "ዲሞክራቶች": 7865,
      "ዳንስ": 7866,
      "ዳኞች": 7867,
      "ዳያስፖራ": 7868,
      "ዳሳሽ": 7869,
      "ዴይ": 7870,
      "ዴልሂ": 7871,
      "ዴኒስ": 7872,
      "ዴንማ": 7873,
      "ድረ": 7874,
      "ድብ": 7875,
      "ድክ": 7876,
      "ድሎች": 7877,
      "ዶክት": 7878,
      "ዶሮዎች": 7879,
      "ጀም": 7880,
      "ጀምበር": 7881,
      "ጁን": 7882,
      "ጁኒየር": 7883,
      "ጂፒ": 7884,
      "ጃን": 7885,
      "ጃኮ": 7886,
      "ጃይካ": 7887,
      "ጄምስ": 7888,
      "ጅምር": 7889,
      "ጆንሰን": 7890,
      "ገላ": 7891,
      "ገጣ": 7892,
      "ገባር": 7893,
      "ገፃቸው": 7894,
      "ጉጂ": 7895,
      "ጉቦ": 7896,
      "ጉጃ": 7897,
      "ጌም": 7898,
      "ጌት": 7899,
      "ግሬ": 7900,
      "ግር": 7901,
      "ግሪ": 7902,
      "ግሬት": 7903,
      "ግቦችን": 7904,
      "ግሪን": 7905,
      "ግጭትን": 7906,
      "ግዴታ": 7907,
      "ጎግ": 7908,
      "ጎመራ": 7909,
      "ጎብኚ": 7910,
      "ጠን": 7911,
      "ጠላ": 7912,
      "ጠቀ": 7913,
      "ጠብ": 7914,
      "ጠላፊ": 7915,
      "ጠፈር": 7916,
      "ጠረፍ": 7917,
      "ጠርሙ": 7918,
      "ጠለፋ": 7919,
      "ጣይ": 7920,
      "ጣለች": 7921,
      "ጣሊያ": 7922,
      "ጥሬ": 7923,
      "ጥሰ": 7924,
      "ጥበ": 7925,
      "ጥለው": 7926,
      "ጥይት": 7927,
      "ጥሏል": 7928,
      "ጥፋት": 7929,
      "ጥምቀት": 7930,
      "ጨም": 7931,
      "ጨውን": 7932,
      "ጨርቅ": 7933,
      "ጫና": 7934,
      "ጭማሪ": 7935,
      "ጭምብ": 7936,
      "ጭፍጨ": 7937,
      "ጸሃ": 7938,
      "ጸጋይ": 7939,
      "ጾታ": 7940,
      "ጾታዊ": 7941,
      "ፀጥታ": 7942,
      "ፆምን": 7943,
      "ፈጽ": 7944,
      "ፈታ": 7945,
      "ፈጠ": 7946,
      "ፈጥሯል": 7947,
      "ፈርዶ": 7948,
      "ፈቀደ": 7949,
      "ፊደ": 7950,
      "ፊርማ": 7951,
      "ፋይ": 7952,
      "ፋሶ": 7953,
      "ፋሽን": 7954,
      "ፋኑኤል": 7955,
      "ፌዴ": 7956,
      "ፌደራ": 7957,
      "ፌደራል": 7958,
      "ፍጥ": 7959,
      "ፍቅ": 7960,
      "ፍኖ": 7961,
      "ፍጆ": 7962,
      "ፍቺ": 7963,
      "ፍቅር": 7964,
      "ፍፃሜ": 7965,
      "ፍሳሽ": 7966,
      "ፎርሙ": 7967,
      "ፒስ": 7968,
      "ፓወ": 7969,
      "ፓናማ": 7970,
      "ፕራ": 7971,
      "ፕራይ": 7972,
      "ፕሌይ": 7973,
      "ፖሮ": 7974,
      "ፖሊዮን": 7975,
      "##ሚቢያ": 7976,
      "##ውብ": 7977,
      "##ውና": 7978,
      "##ውቅ": 7979,
      "##ውነ": 7980,
      "##ውሎ": 7981,
      "##ውቅና": 7982,
      "##ውረር": 7983,
      "##ውሊድ": 7984,
      "##ልሄ": 7985,
      "##ልበ": 7986,
      "##ልሙ": 7987,
      "##ልኮ": 7988,
      "##ልተኛ": 7989,
      "##ልፊያ": 7990,
      "##ልፏል": 7991,
      "##ልቬንያ": 7992,
      "##ሬው": 7993,
      "##ሬሮ": 7994,
      "##ሬታ": 7995,
      "##ሬሽኖች": 7996,
      "##ሬሽኑ": 7997,
      "##ሳን": 7998,
      "##ሳኤል": 7999,
      "##ሳዊው": 8000,
      "##ካራ": 8001,
      "##ካማ": 8002,
      "##ካዊ": 8003,
      "##ካክ": 8004,
      "##ካፋ": 8005,
      "##ካፈል": 8006,
      "##ካቲት": 8007,
      "##ካዳሚ": 8008,
      "##ካከለኛው": 8009,
      "##ምነት": 8010,
      "##ምየር": 8011,
      "##ምባይ": 8012,
      "##ምስተር": 8013,
      "##ምረጥ": 8014,
      "##ፕሪ": 8015,
      "##ፕቲ": 8016,
      "##ፕሊን": 8017,
      "##ፕላስ": 8018,
      "##ሰቀ": 8019,
      "##ሰዱ": 8020,
      "##ሰኘ": 8021,
      "##ሰረት": 8022,
      "##ሰጣት": 8023,
      "##ሰባቸው": 8024,
      "##ሰልስ": 8025,
      "##ፈች": 8026,
      "##ፈስ": 8027,
      "##ፈተ": 8028,
      "##ፈሩ": 8029,
      "##ፈርት": 8030,
      "##ፈጠሩ": 8031,
      "##ፈቀደ": 8032,
      "##ፈነዳ": 8033,
      "##ራም": 8034,
      "##ራች": 8035,
      "##ራጎ": 8036,
      "##ራግ": 8037,
      "##ራሲ": 8038,
      "##ራዎች": 8039,
      "##ራቱን": 8040,
      "##ራጮች": 8041,
      "##ትሪ": 8042,
      "##ትዲ": 8043,
      "##ትመት": 8044,
      "##ትቷል": 8045,
      "##ትረፍ": 8046,
      "##ንዴ": 8047,
      "##ንብ": 8048,
      "##ንሻ": 8049,
      "##ንሶ": 8050,
      "##ንኦ": 8051,
      "##ንጄ": 8052,
      "##ንስት": 8053,
      "##ንታል": 8054,
      "##ንታዊ": 8055,
      "##ንላንድ": 8056,
      "##ንቨርሲቲ": 8057,
      "##ንፏል": 8058,
      "##ንሳዊ": 8059,
      "##ንቅላት": 8060,
      "##ንቃኝ": 8061,
      "##ዳሉ": 8062,
      "##ዳጃ": 8063,
      "##ዳስት": 8064,
      "##ዳዲስ": 8065,
      "##ዳለች": 8066,
      "##ዳቸውን": 8067,
      "##ዳኒት": 8068,
      "##ዳጋስካር": 8069,
      "##ይቭ": 8070,
      "##ይድ": 8071,
      "##ይኖ": 8072,
      "##ገዳ": 8073,
      "##ገመ": 8074,
      "##ገጥ": 8075,
      "##ገቢ": 8076,
      "##ገትን": 8077,
      "##ገበር": 8078,
      "##ገበረ": 8079,
      "##ገሮች": 8080,
      "##ገደው": 8081,
      "##ገባቸው": 8082,
      "##አያ": 8083,
      "##አድ": 8084,
      "##አለም": 8085,
      "##አክሲ": 8086,
      "##ለላ": 8087,
      "##ለበ": 8088,
      "##ለዋ": 8089,
      "##ለኝ": 8090,
      "##ለህ": 8091,
      "##ለዩ": 8092,
      "##ለጸ": 8093,
      "##ለታል": 8094,
      "##ለቀው": 8095,
      "##ማላ": 8096,
      "##ማዝ": 8097,
      "##ማቲክ": 8098,
      "##ማያዊ": 8099,
      "##ማርያም": 8100,
      "##ችላ": 8101,
      "##ችዋል": 8102,
      "##ችለው": 8103,
      "##ችልም": 8104,
      "##ችኛው": 8105,
      "##ችበትን": 8106,
      "##ርሰ": 8107,
      "##ርቱ": 8108,
      "##ርግ": 8109,
      "##ርቃ": 8110,
      "##ርተ": 8111,
      "##ርና": 8112,
      "##ርነ": 8113,
      "##ርጅ": 8114,
      "##ርሺ": 8115,
      "##ርዓ": 8116,
      "##ርተዋል": 8117,
      "##ርአት": 8118,
      "##ርቫርድ": 8119,
      "##ቭላንድ": 8120,
      "##ቭዥን": 8121,
      "##ላቅ": 8122,
      "##ላምና": 8123,
      "##ላመድ": 8124,
      "##ላኒያ": 8125,
      "##ላቸዋል": 8126,
      "##ላሆማ": 8127,
      "##ጎበ": 8128,
      "##ጎችን": 8129,
      "##ቱም": 8130,
      "##ቱሩ": 8131,
      "##ስላ": 8132,
      "##ስግ": 8133,
      "##ስሎ": 8134,
      "##ስረት": 8135,
      "##ስበው": 8136,
      "##ስቅሷል": 8137,
      "##ዴኦ": 8138,
      "##ሊካ": 8139,
      "##ሊም": 8140,
      "##ሊብ": 8141,
      "##ሊካን": 8142,
      "##ሊቪያ": 8143,
      "##ዝን": 8144,
      "##ዝገ": 8145,
      "##ዝቡ": 8146,
      "##ዝምን": 8147,
      "##ዝነው": 8148,
      "##ዝግባለች": 8149,
      "##ጀው": 8150,
      "##ጀምሩ": 8151,
      "##ሮጥ": 8152,
      "##ሮንስ": 8153,
      "##ሮግራ": 8154,
      "##ሮባንድ": 8155,
      "##ዎቸ": 8156,
      "##ዎርክ": 8157,
      "##ቀውን": 8158,
      "##ቀቶች": 8159,
      "##ቀረት": 8160,
      "##ቀሚያ": 8161,
      "##ቀረው": 8162,
      "##ቀደው": 8163,
      "##ቀልን": 8164,
      "##ቀሙበት": 8165,
      "##ቀለበ": 8166,
      "##ረች": 8167,
      "##ረቁ": 8168,
      "##ረክ": 8169,
      "##ረቲ": 8170,
      "##ረፋ": 8171,
      "##ረፀ": 8172,
      "##ረስት": 8173,
      "##ረበት": 8174,
      "##ረናል": 8175,
      "##ረሪት": 8176,
      "##በበ": 8177,
      "##በሉ": 8178,
      "##በባ": 8179,
      "##በሪ": 8180,
      "##በውን": 8181,
      "##በበው": 8182,
      "##መታ": 8183,
      "##መዘ": 8184,
      "##መተ": 8185,
      "##መና": 8186,
      "##መውን": 8187,
      "##መረት": 8188,
      "##መታት": 8189,
      "##መታል": 8190,
      "##መጡት": 8191,
      "##መሳሳይ": 8192,
      "##መዝገብ": 8193,
      "##መናን": 8194,
      "##ግሯል": 8195,
      "##ግልስ": 8196,
      "##ታውን": 8197,
      "##ታይል": 8198,
      "##ታግራ": 8199,
      "##ታቾች": 8200,
      "##ታሚን": 8201,
      "##ቸን": 8202,
      "##ቸሪንግ": 8203,
      "##ፓሪ": 8204,
      "##ፓወር": 8205,
      "##ደች": 8206,
      "##ደላቸው": 8207,
      "##ደኝነት": 8208,
      "##ደሳች": 8209,
      "##ዘዝ": 8210,
      "##ዘነ": 8211,
      "##ዘኛ": 8212,
      "##ዘዋል": 8213,
      "##ዘመን": 8214,
      "##ዘረጋ": 8215,
      "##ዘርፍ": 8216,
      "##ዋሳ": 8217,
      "##ዋራ": 8218,
      "##ዋላ": 8219,
      "##ዋና": 8220,
      "##ዋሉ": 8221,
      "##ዋሃ": 8222,
      "##ዋሚዎች": 8223,
      "##ወጅ": 8224,
      "##ወከል": 8225,
      "##ወርክ": 8226,
      "##ወዳደር": 8227,
      "##ጠቡ": 8228,
      "##ጠች": 8229,
      "##ጠጥ": 8230,
      "##ጠጉ": 8231,
      "##ጠቆም": 8232,
      "##ሙዩ": 8233,
      "##ቶቻቸውን": 8234,
      "##ቶበታል": 8235,
      "##ቶግራፍ": 8236,
      "##ብን": 8237,
      "##ብሪ": 8238,
      "##ብሩ": 8239,
      "##ብሰባ": 8240,
      "##ብሮቻቸው": 8241,
      "##ቃቸውን": 8242,
      "##ቃብር": 8243,
      "##ጣን": 8244,
      "##ጣዊ": 8245,
      "##ጣፍ": 8246,
      "##ጣዮ": 8247,
      "##ጣዩ": 8248,
      "##ጣራት": 8249,
      "##ጣቱን": 8250,
      "##ጣጠረ": 8251,
      "##ዙዎች": 8252,
      "##ጨቱ": 8253,
      "##ጨብ": 8254,
      "##ጨውን": 8255,
      "##ጨመሩ": 8256,
      "##ID": 8257,
      "##TE": 8258,
      "##ተም": 8259,
      "##ተዋ": 8260,
      "##ተነ": 8261,
      "##ተኑ": 8262,
      "##ተማመን": 8263,
      "##ተብርሃን": 8264,
      "##ናም": 8265,
      "##ናስ": 8266,
      "##ናኛ": 8267,
      "##ናዮች": 8268,
      "##ናነቅ": 8269,
      "##ናጋጅነት": 8270,
      "##ናባሪ": 8271,
      "##ሉመ": 8272,
      "##ሻው": 8273,
      "##ሻማ": 8274,
      "##ሻሽ": 8275,
      "##ሻየር": 8276,
      "##ዊን": 8277,
      "##ዊነት": 8278,
      "##ዊንስ": 8279,
      "##ሜር": 8280,
      "##ሜታ": 8281,
      "##ሜኑ": 8282,
      "##ጥቅ": 8283,
      "##ጥሮችን": 8284,
      "##ቅቃል": 8285,
      "##ቅሳች": 8286,
      "##ቋር": 8287,
      "##ቋረ": 8288,
      "##ቋንቋ": 8289,
      "##ቋርጥ": 8290,
      "##ሲት": 8291,
      "##ሲን": 8292,
      "##ሲሊ": 8293,
      "##ሲያን": 8294,
      "##ሲአር": 8295,
      "##ዬራ": 8296,
      "##ዬን": 8297,
      "##kል": 8298,
      "##kk": 8299,
      "##ያጎ": 8300,
      "##ያስ": 8301,
      "##ያዥ": 8302,
      "##ያኑ": 8303,
      "##ያዩ": 8304,
      "##ያናት": 8305,
      "##ጋጥ": 8306,
      "##ጋቸውን": 8307,
      "##ጋገሩ": 8308,
      "##ጋሎት": 8309,
      "##ነዱ": 8310,
      "##ነጨ": 8311,
      "##ነሩ": 8312,
      "##ነክራል": 8313,
      "##ነጥበብ": 8314,
      "##ነበበው": 8315,
      "##ባለ": 8316,
      "##ባሆ": 8317,
      "##ባጃ": 8318,
      "##ባጭ": 8319,
      "##ባቶች": 8320,
      "##ባበል": 8321,
      "##ባረር": 8322,
      "##ቫዳ": 8323,
      "##ቫር": 8324,
      "##ቫክስ": 8325,
      "##ድቅ": 8326,
      "##ኩም": 8327,
      "##ኩን": 8328,
      "##ኩስ": 8329,
      "##ኩሺማ": 8330,
      "##ኬስትራ": 8331,
      "##ከመ": 8332,
      "##ከባ": 8333,
      "##ከቶች": 8334,
      "##ከባቢ": 8335,
      "##ከረው": 8336,
      "##ከበረው": 8337,
      "##ከብረው": 8338,
      "##ሪም": 8339,
      "##ሪፒ": 8340,
      "##ሪሴ": 8341,
      "##ሪንስ": 8342,
      "##ሪየር": 8343,
      "##ሪአይ": 8344,
      "##ሪኮም": 8345,
      "##ሪቢያን": 8346,
      "##ቷቸው": 8347,
      "##ኤሉ": 8348,
      "##ቪች": 8349,
      "##ቪቻ": 8350,
      "##ኖስ": 8351,
      "##ኖሪያ": 8352,
      "##ኖረው": 8353,
      "##ኖብል": 8354,
      "##ዶኒያ": 8355,
      "##ዶውስ": 8356,
      "##ቹስ": 8357,
      "##ቁም": 8358,
      "##ክን": 8359,
      "##ክሪ": 8360,
      "##ክቶችን": 8361,
      "##ክላንድ": 8362,
      "##ክፈል": 8363,
      "##ክክር": 8364,
      "##ክላለች": 8365,
      "##ክቸሪንግ": 8366,
      "##ሞቹ": 8367,
      "##ሞኒ": 8368,
      "##ሞቿ": 8369,
      "##ሞኑን": 8370,
      "##ፍሬ": 8371,
      "##ፍስ": 8372,
      "##ፍሮ": 8373,
      "##ፍታ": 8374,
      "##ፍጣ": 8375,
      "##ፍሌት": 8376,
      "##ፍቀድ": 8377,
      "##ፍረንስ": 8378,
      "##ኞቹ": 8379,
      "##ኞቹን": 8380,
      "##ቻለ": 8381,
      "##ቻችን": 8382,
      "##ቻልም": 8383,
      "##ቻልበት": 8384,
      "##ዲሽ": 8385,
      "##ዲሴ": 8386,
      "##ዲዩ": 8387,
      "##ዲሾ": 8388,
      "##ዲዮን": 8389,
      "##ዲናል": 8390,
      "##ዲትራኒያን": 8391,
      "##ዚዝ": 8392,
      "##ዚየ": 8393,
      "##ዚላንድ": 8394,
      "##ዮሽ": 8395,
      "##ዮሊን": 8396,
      "##ሎቬንያ": 8397,
      "##ጂያ": 8398,
      "##ጂድ": 8399,
      "##ጂኤ": 8400,
      "##ጂዮ": 8401,
      "##ጂኒያ": 8402,
      "##ጂየም": 8403,
      "##ዥም": 8404,
      "##ኮል": 8405,
      "##ኮን": 8406,
      "##ኮንቲ": 8407,
      "##ኮቪድ": 8408,
      "##ኮሙኒኬሽን": 8409,
      "##ሂዶ": 8410,
      "##ሂደዋል": 8411,
      "##ቨረስት": 8412,
      "##ሌንዲ": 8413,
      "##ቢአይ": 8414,
      "##ሃት": 8415,
      "##ሃስ": 8416,
      "##ሃኑ": 8417,
      "##ኒል": 8418,
      "##ኒላ": 8419,
      "##ኒካል": 8420,
      "##ኒቨርሲቲ": 8421,
      "##ኒቫል": 8422,
      "##ቦር": 8423,
      "##ቦቱ": 8424,
      "##ቦርድ": 8425,
      "##ህነት": 8426,
      "##ህራን": 8427,
      "##ህይወት": 8428,
      "##ህተት": 8429,
      "##ጻሚ": 8430,
      "##ፒንግ": 8431,
      "##ፒተር": 8432,
      "##ኪር": 8433,
      "##ኪኖ": 8434,
      "##ኪፔ": 8435,
      "##ኪንግ": 8436,
      "##ዕለ": 8437,
      "##ኢቲ": 8438,
      "##የመ": 8439,
      "##ሱል": 8440,
      "##ሱት": 8441,
      "##ጆቻቸው": 8442,
      "##ቆል": 8443,
      "##ቆት": 8444,
      "##ቆቱ": 8445,
      "##ቆዩ": 8446,
      "##ቆጠር": 8447,
      "##ቆየት": 8448,
      "##ቆጠረ": 8449,
      "##ጦጦ": 8450,
      "##ፌያ": 8451,
      "##ሽላ": 8452,
      "##ሽያ": 8453,
      "##ሽናል": 8454,
      "##ሽላለች": 8455,
      "##ሽቆለ": 8456,
      "##ጅየም": 8457,
      "##ሥራት": 8458,
      "##ሥታት": 8459,
      "##ቼን": 8460,
      "##ቼንጅ": 8461,
      "##ቲኮ": 8462,
      "##ቲፒ": 8463,
      "##ቲካል": 8464,
      "##ቲንን": 8465,
      "##ቲዩብ": 8466,
      "##ኔል": 8467,
      "##ኔር": 8468,
      "##ኔዲ": 8469,
      "##ሴሊ": 8470,
      "##ሆልም": 8471,
      "##ሁዱ": 8472,
      "##ኑፋ": 8473,
      "##ቴስ": 8474,
      "##ቴክ": 8475,
      "##ቴክስ": 8476,
      "##ፋጠን": 8477,
      "##ፋጠነ": 8478,
      "##ፋሪኮም": 8479,
      "##5ኛው": 8480,
      "##ዛዊ": 8481,
      "##ዛዥ": 8482,
      "##ዛቤ": 8483,
      "##ዛቸው": 8484,
      "##ዛወር": 8485,
      "##ኃን": 8486,
      "##ፊል": 8487,
      "##ፊያን": 8488,
      "##ፊሻል": 8489,
      "##ፖንሰር": 8490,
      "##ሟን": 8491,
      "##ዩተር": 8492,
      "##ዩቲካል": 8493,
      "##ጉሜ": 8494,
      "##ጉሰን": 8495,
      "##ጸው": 8496,
      "##ሺህ": 8497,
      "##ቮሪ": 8498,
      "##ጭበረ": 8499,
      "##ጭተዋል": 8500,
      "##25": 8501,
      "##22": 8502,
      "##23": 8503,
      "##ፃፀ": 8504,
      "##ፃነት": 8505,
      "##ሸፍ": 8506,
      "##ሸፈን": 8507,
      "##ፅም": 8508,
      "##ፅዳት": 8509,
      "##ፀባር": 8510,
      "##ፀሃይ": 8511,
      "##ጡን": 8512,
      "##31": 8513,
      "##ሏን": 8514,
      "##ፆች": 8515,
      "##ሶን": 8516,
      "##ሶይ": 8517,
      "##ሶቮ": 8518,
      "##ሶሴሽን": 8519,
      "##ፎን": 8520,
      "##ፎስ": 8521,
      "##ፎችን": 8522,
      "##ፎርድ": 8523,
      "##ዌያዊው": 8524,
      "##ኦኔ": 8525,
      "##ኦዎችን": 8526,
      "##ዓል": 8527,
      "##ሐይ": 8528,
      "##70": 8529,
      "##ዞር": 8530,
      "##ዞችን": 8531,
      "##ሀይ": 8532,
      "##ሀር": 8533,
      "##ጓን": 8534,
      "##ጓዙ": 8535,
      "##ዢው": 8536,
      "##ዢያ": 8537,
      "##ጇል": 8538,
      "##ፔስ": 8539,
      "##ሕዶ": 8540,
      "##ፁም": 8541,
      "##ፁህ": 8542,
      "##ir": 8543,
      "##ar": 8544,
      "##ጌት": 8545,
      "##ጌቲች": 8546,
      "##ሹን": 8547,
      "##ሼንኮ": 8548,
      "##ኸኝ": 8549,
      "##EN": 8550,
      "##VID": 8551,
      "##VEN": 8552,
      "##SS": 8553,
      "##ሑፍ": 8554,
      "እንቅ": 8555,
      "እንቁ": 8556,
      "እንስት": 8557,
      "እንችላ": 8558,
      "እንጦጦ": 8559,
      "እናቶች": 8560,
      "##ዎችና": 8561,
      "ላይቤሪያ": 8562,
      "የሚረ": 8563,
      "የሚጋ": 8564,
      "የሚለው": 8565,
      "የሚገድ": 8566,
      "የሚመለ": 8567,
      "የሚችል": 8568,
      "የሚወጣ": 8569,
      "የሚገቡ": 8570,
      "የሚከናወ": 8571,
      "የሚስተና": 8572,
      "የሚካሄድ": 8573,
      "የሚለውን": 8574,
      "የሚጠበቅ": 8575,
      "የሚወስ": 8576,
      "የሚስብ": 8577,
      "የሚቀርብ": 8578,
      "የሚችለውን": 8579,
      "የሚጠበቁ": 8580,
      "የሚፈልጉ": 8581,
      "የሚሰጠው": 8582,
      "የሚከሰቱ": 8583,
      "የሚንቀሳ": 8584,
      "የሚላኩ": 8585,
      "የሚረዱ": 8586,
      "የሚሞክር": 8587,
      "የሚደግፍ": 8588,
      "የሚካሄደውን": 8589,
      "የሚቀርበው": 8590,
      "የሚከበረው": 8591,
      "የተጎ": 8592,
      "የተሞ": 8593,
      "የተሸ": 8594,
      "የተመራ": 8595,
      "የተፈጠ": 8596,
      "የተከለ": 8597,
      "የተነሱ": 8598,
      "የተጀመረ": 8599,
      "የተረጋገጠ": 8600,
      "የተገነባ": 8601,
      "የተሳተፉ": 8602,
      "የተረጋገጡ": 8603,
      "የተሻለ": 8604,
      "የተጠበቁ": 8605,
      "የተፈረደ": 8606,
      "የተላከው": 8607,
      "የተጎዳ": 8608,
      "የተረፉ": 8609,
      "የተገደሉ": 8610,
      "የተካሄደውን": 8611,
      "የተኩስ": 8612,
      "##ስትሮ": 8613,
      "##ስትሪያ": 8614,
      "##ስትያናት": 8615,
      "የአቶ": 8616,
      "የአድ": 8617,
      "የአኒ": 8618,
      "የአገር": 8619,
      "የአረጋ": 8620,
      "የአገሪቱ": 8621,
      "የአዲሱ": 8622,
      "የአመቱ": 8623,
      "የአማር": 8624,
      "የአቃቤ": 8625,
      "የአጭር": 8626,
      "የአህጉ": 8627,
      "የአሽከርካሪዎች": 8628,
      "የአክሲዮን": 8629,
      "የአናሳ": 8630,
      "የአስተዳደር": 8631,
      "የአዮዲን": 8632,
      "የአርካንሳስ": 8633,
      "አስች": 8634,
      "አስወ": 8635,
      "አስመራ": 8636,
      "አስረው": 8637,
      "አስረድ": 8638,
      "አስለቃሽ": 8639,
      "አስቂኝ": 8640,
      "አስደንጋጭ": 8641,
      "አስደሳች": 8642,
      "በመለ": 8643,
      "በመር": 8644,
      "በመታ": 8645,
      "በመጋ": 8646,
      "በመጠን": 8647,
      "በመተው": 8648,
      "በመከላከል": 8649,
      "በመሳሪያ": 8650,
      "በመሰረ": 8651,
      "በመሄድ": 8652,
      "በመርዳት": 8653,
      "በመጪው": 8654,
      "በመልቀቅ": 8655,
      "በመጣው": 8656,
      "በመግባቱ": 8657,
      "በመጎብኘ": 8658,
      "በመሮጥ": 8659,
      "በመወከል": 8660,
      "እንደነ": 8661,
      "እንደሞ": 8662,
      "እንደርታ": 8663,
      "እንደገደለ": 8664,
      "በአሳ": 8665,
      "በአፖ": 8666,
      "በአመት": 8667,
      "በአንታ": 8668,
      "በአረብ": 8669,
      "በአጭር": 8670,
      "በአትሌቲክስ": 8671,
      "በአንደ": 8672,
      "በአፍጋኒስታን": 8673,
      "በአጎራባች": 8674,
      "በአግባቡ": 8675,
      "በአምስተር": 8676,
      "##ሪያዎች": 8677,
      "በተቀ": 8678,
      "በተያ": 8679,
      "በተደረጉ": 8680,
      "በተገኘው": 8681,
      "በተጀመረው": 8682,
      "በተግባር": 8683,
      "በተቀመ": 8684,
      "በተሻለ": 8685,
      "በተላከው": 8686,
      "በተፈጸመ": 8687,
      "በተደጋጋሚ": 8688,
      "በተከፈተው": 8689,
      "የመዝ": 8690,
      "የመታ": 8691,
      "የመሃ": 8692,
      "የመሳሪያ": 8693,
      "የመያዝ": 8694,
      "የመፍጠር": 8695,
      "የመገንባት": 8696,
      "የመውጣት": 8697,
      "የመውሊድ": 8698,
      "የመካከለኛው": 8699,
      "የመምረጥ": 8700,
      "የመሰረት": 8701,
      "የመራጮች": 8702,
      "የመቃብር": 8703,
      "የመነጨ": 8704,
      "##ደረግባ": 8705,
      "##ደረጋቸው": 8706,
      "##ቸውም": 8707,
      "##ቸውና": 8708,
      "##ሪካዊው": 8709,
      "እንዲሰ": 8710,
      "እንዲህ": 8711,
      "እንዲሆኑ": 8712,
      "እንዲመረ": 8713,
      "እንዲውል": 8714,
      "እንዲችሉ": 8715,
      "እንዲነሱ": 8716,
      "እንዲመለሱ": 8717,
      "እንዲኖራቸው": 8718,
      "እንዲከፍ": 8719,
      "እንዲለቀቁ": 8720,
      "እንዲሰማሩ": 8721,
      "እንዲዘገ": 8722,
      "እንዲቀጥሉ": 8723,
      "እንዲሄዱ": 8724,
      "እንዲጎበኙ": 8725,
      "እንዲጀምሩ": 8726,
      "ለመተ": 8727,
      "ለመገደ": 8728,
      "ለመሳተፍ": 8729,
      "ለመቃወ": 8730,
      "ለመቋቋም": 8731,
      "ለመዝናኛ": 8732,
      "ለመፈፀም": 8733,
      "ለመጨመር": 8734,
      "ለመታደግ": 8735,
      "ለመረዳት": 8736,
      "ለመዋጋት": 8737,
      "ለመቅጣት": 8738,
      "ለማም": 8739,
      "ለማን": 8740,
      "ለማዋል": 8741,
      "ለማረጋ": 8742,
      "ለማጭበርበር": 8743,
      "ለማቋቋም": 8744,
      "ለማምረት": 8745,
      "ለማረፍ": 8746,
      "ለማድግ": 8747,
      "ለማካተት": 8748,
      "ለማራመድ": 8749,
      "ለማከም": 8750,
      "ለማክበር": 8751,
      "ለማስተማር": 8752,
      "ለማዘመን": 8753,
      "ለማዛወር": 8754,
      "##ንትፕላስ": 8755,
      "##ንትሪም": 8756,
      "ወደሚ": 8757,
      "ወደሆነ": 8758,
      "ወደነበረበት": 8759,
      "ባለማ": 8760,
      "ባለበት": 8761,
      "##ላይና": 8762,
      "በማቃ": 8763,
      "በማጥ": 8764,
      "በማድ": 8765,
      "በማርስ": 8766,
      "በማቆም": 8767,
      "በማጠናከር": 8768,
      "በማጭበርበር": 8769,
      "በማምጣት": 8770,
      "በማድረስ": 8771,
      "በማተኮ": 8772,
      "በማቀድ": 8773,
      "በማከናወን": 8774,
      "በማካተት": 8775,
      "በማቋረጥ": 8776,
      "በማጅራት": 8777,
      "በማህበራዊ": 8778,
      "በማይናማር": 8779,
      "በማሰልጠን": 8780,
      "በማዳጋስካር": 8781,
      "በማወጅ": 8782,
      "በማኒላ": 8783,
      "##በርታ": 8784,
      "ከተቃ": 8785,
      "ከተያዙ": 8786,
      "ከተረጋገጠ": 8787,
      "ከተሰጣቸው": 8788,
      "ከተለያየ": 8789,
      "ከተባበሩት": 8790,
      "ከተሞቿ": 8791,
      "በሚታ": 8792,
      "በሚመረ": 8793,
      "በሚደረጉ": 8794,
      "በሚችል": 8795,
      "በሚቆጠሩ": 8796,
      "በሚጀመረው": 8797,
      "በሚጠቀ": 8798,
      "በሚያዝያ": 8799,
      "በሚከሰት": 8800,
      "በሚታወቀው": 8801,
      "በሚኒስቴሩ": 8802,
      "በሚውለው": 8803,
      "በሚሊዮኖች": 8804,
      "በሚሲሲፒ": 8805,
      "በሚቻልበት": 8806,
      "##ጀመሩ": 8807,
      "##ንስና": 8808,
      "##ንስፎርሜሽን": 8809,
      "##ንስታግራ": 8810,
      "##በትም": 8811,
      "##ተርን": 8812,
      "##ተርስ": 8813,
      "##ተርኔት": 8814,
      "ምርቱ": 8815,
      "ምርመር": 8816,
      "ጊዜው": 8817,
      "ጊዜያቸው": 8818,
      "##በረሰቡ": 8819,
      "አካሄድ": 8820,
      "አካላትን": 8821,
      "አካሂዷል": 8822,
      "እንደሚገ": 8823,
      "እንደሚሆኑ": 8824,
      "እንደሚታወ": 8825,
      "እንደሚውል": 8826,
      "እንደሚደረግ": 8827,
      "እንደሚጀመር": 8828,
      "እንደሚመጣ": 8829,
      "እንደሚመለስ": 8830,
      "እንደሚፈልግ": 8831,
      "እንደሚጠብ": 8832,
      "እንደሚቆይ": 8833,
      "እንደሚቀጥል": 8834,
      "እንደሚፈጥር": 8835,
      "እንደሚገባም": 8836,
      "##ታወቅ": 8837,
      "##ታወቀም": 8838,
      "እንዳያ": 8839,
      "እንዳደረገ": 8840,
      "እንዳገደ": 8841,
      "እንዳልክ": 8842,
      "እንዳዋለ": 8843,
      "##ገኘም": 8844,
      "የማን": 8845,
      "የማስ": 8846,
      "የማሊ": 8847,
      "የማሌ": 8848,
      "የማኅ": 8849,
      "የማይና": 8850,
      "የማግኘት": 8851,
      "የማጭበርበር": 8852,
      "የማሌዥያ": 8853,
      "የማጅራት": 8854,
      "የማስተናገድ": 8855,
      "##ባቢዎች": 8856,
      "እየመራ": 8857,
      "እየቀነሰ": 8858,
      "እየጠየ": 8859,
      "##ስተዋል": 8860,
      "መንግሰት": 8861,
      "የእጅ": 8862,
      "የእኔ": 8863,
      "የእስራ": 8864,
      "የእሳተ": 8865,
      "የእርስ": 8866,
      "የእድገት": 8867,
      "የእኛን": 8868,
      "የእንግሊ": 8869,
      "አቀንቃኝ": 8870,
      "አቀናባሪ": 8871,
      "እስክ": 8872,
      "እስኪ": 8873,
      "እስቴ": 8874,
      "እስላማ": 8875,
      "እስካል": 8876,
      "አቅደዋል": 8877,
      "አቅማቸውን": 8878,
      "የሚያስተ": 8879,
      "የሚያገኙ": 8880,
      "የሚያገኘው": 8881,
      "የሚያቀር": 8882,
      "የሚያመጣ": 8883,
      "የሚያመነ": 8884,
      "የሚያገለግሉ": 8885,
      "የሚያስተዳ": 8886,
      "የሚያጠናክር": 8887,
      "የሚያነሳሳ": 8888,
      "##ድረው": 8889,
      "##ድረሱ": 8890,
      "ጉዳፍ": 8891,
      "ጉዳተኛ": 8892,
      "ጉዳዩን": 8893,
      "ከተማው": 8894,
      "##ልጣኖች": 8895,
      "##ልጣናቸው": 8896,
      "መንበር": 8897,
      "መንቀሳ": 8898,
      "አገራቸው": 8899,
      "አገዛዝ": 8900,
      "አውጇል": 8901,
      "ግንዛቤ": 8902,
      "ድርሻ": 8903,
      "ድርጊ": 8904,
      "ከአካ": 8905,
      "ከአማ": 8906,
      "ከአር": 8907,
      "ከአገልግሎት": 8908,
      "ከአሥር": 8909,
      "ከአፍጋኒስታን": 8910,
      "የኢድ": 8911,
      "የኢንስቲትዩ": 8912,
      "የኢየሱስ": 8913,
      "ያለፈው": 8914,
      "##ስራቱ": 8915,
      "##ታልፍ": 8916,
      "##መረጠ": 8917,
      "አስተሳሰብ": 8918,
      "አስተናጋጅነት": 8919,
      "ፕሮቶ": 8920,
      "ፕሮዲዩ": 8921,
      "መስራት": 8922,
      "መስፈር": 8923,
      "መስመጥ": 8924,
      "መስመሮች": 8925,
      "መስፈርት": 8926,
      "መስጂድ": 8927,
      "በኢትዮጵያና": 8928,
      "የህዳሴ": 8929,
      "የህብረተሰብ": 8930,
      "የህንፃ": 8931,
      "የህንዱ": 8932,
      "የህዝበ": 8933,
      "##ጠናክሩ": 8934,
      "የምህ": 8935,
      "የምዕራ": 8936,
      "የምጣኔ": 8937,
      "አምኖ": 8938,
      "አምስተኛ": 8939,
      "አምላክ": 8940,
      "አምፓሮ": 8941,
      "ዋናተኛ": 8942,
      "መካነ": 8943,
      "ኢንክ": 8944,
      "ኢንፎርሜሽን": 8945,
      "ኢንፌክሽን": 8946,
      "ኢንዲያና": 8947,
      "የውድድሩ": 8948,
      "የውይይት": 8949,
      "##ነሳው": 8950,
      "##ነሳውን": 8951,
      "##ነሳበት": 8952,
      "አንድነትን": 8953,
      "##ለያየት": 8954,
      "##ከትል": 8955,
      "አካባቢና": 8956,
      "አካባቢዎችን": 8957,
      "አደንዛ": 8958,
      "አደሪሴ": 8959,
      "በሰዎች": 8960,
      "በሰላማዊ": 8961,
      "ውድስ": 8962,
      "የግንባ": 8963,
      "##ክትል": 8964,
      "##ክትረስ": 8965,
      "ስርአ": 8966,
      "ስርአት": 8967,
      "##ገሪቷን": 8968,
      "##ግርኛ": 8969,
      "##ሎጂካል": 8970,
      "##ረጋጋ": 8971,
      "በላይቤሪያ": 8972,
      "በምድር": 8973,
      "በምግብ": 8974,
      "በምርጥ": 8975,
      "በምክትል": 8976,
      "አልጋ": 8977,
      "አልማዝ": 8978,
      "አልታወቀም": 8979,
      "ሚኒስቴርነት": 8980,
      "ስራን": 8981,
      "ስራቸውን": 8982,
      "##ርቲን": 8983,
      "##ከሰስ": 8984,
      "##ከሰተው": 8985,
      "የስጋ": 8986,
      "የስፖር": 8987,
      "የስኳር": 8988,
      "##መርመር": 8989,
      "የሰውን": 8990,
      "የሰደድ": 8991,
      "የሰላምና": 8992,
      "##ዘጋው": 8993,
      "##ዘጋጃ": 8994,
      "##ኤልን": 8995,
      "ደረጃን": 8996,
      "አይስ": 8997,
      "አይጦች": 8998,
      "ተገኝ": 8999,
      "ተገኔ": 9000,
      "ተገኝተው": 9001,
      "ተገለጸ": 9002,
      "አሳረ": 9003,
      "አሳዩ": 9004,
      "አንታ": 9005,
      "አንደ": 9006,
      "አንጄ": 9007,
      "አንዋር": 9008,
      "አንፃር": 9009,
      "አንችልም": 9010,
      "የወፍ": 9011,
      "የወንድ": 9012,
      "የወለድ": 9013,
      "እየተሸ": 9014,
      "እየተስተዋ": 9015,
      "እየተጫወ": 9016,
      "እየተሰራጨ": 9017,
      "ወርሃዊ": 9018,
      "የባለስ": 9019,
      "##ምፒዩተር": 9020,
      "አባተ": 9021,
      "አባለት": 9022,
      "አባላትን": 9023,
      "አባረረ": 9024,
      "አሸር": 9025,
      "እርዳ": 9026,
      "እርባ": 9027,
      "##ደንዛዥ": 9028,
      "ወረርሺ": 9029,
      "ወረቀቶች": 9030,
      "##ጠሩትን": 9031,
      "1994": 9032,
      "1998": 9033,
      "መርጧል": 9034,
      "አብራ": 9035,
      "አብደል": 9036,
      "አብዱላ": 9037,
      "ኩባንያን": 9038,
      "የቀኝ": 9039,
      "ወቅትን": 9040,
      "ፕሬዝዳንቱ": 9041,
      "ሁኔታዎችን": 9042,
      "በስልጣን": 9043,
      "በስፋት": 9044,
      "በስደት": 9045,
      "በስልጠና": 9046,
      "በስዊድን": 9047,
      "በስኮት": 9048,
      "በስቅላት": 9049,
      "በስዊዘርላንድ": 9050,
      "በስብሰባ": 9051,
      "በስሎቬንያ": 9052,
      "በስህተት": 9053,
      "ተናገረ": 9054,
      "የካፍ": 9055,
      "የካቢኔ": 9056,
      "የካዛኪስታን": 9057,
      "ጥበቃን": 9058,
      "ጥበቃና": 9059,
      "አገልግሎቱ": 9060,
      "አገልግሎቱን": 9061,
      "አደጋው": 9062,
      "አደጋን": 9063,
      "አደጋዎችን": 9064,
      "በእስር": 9065,
      "በእስራኤል": 9066,
      "በእንዲ": 9067,
      "በእድሜ": 9068,
      "በእለቱ": 9069,
      "በእየሩሳሌም": 9070,
      "የገቢ": 9071,
      "##ታንሊ": 9072,
      "የተባለች": 9073,
      "እንደተመዘገበ": 9074,
      "እንደተናገ": 9075,
      "ማዕረግ": 9076,
      "የኮን": 9077,
      "የኮሚክ": 9078,
      "የኮንተ": 9079,
      "የኮመንዌልዝ": 9080,
      "የኮምፒውተር": 9081,
      "የኮሶቮ": 9082,
      "ፕሬዚደንታዊ": 9083,
      "ተወሰነ": 9084,
      "ተወዳዳሪዎች": 9085,
      "እያካሄደ": 9086,
      "እያጋጠ": 9087,
      "እያካሄዱ": 9088,
      "እያስተናገደች": 9089,
      "የታይ": 9090,
      "የታማ": 9091,
      "የታክስ": 9092,
      "የታየው": 9093,
      "የታለመ": 9094,
      "የታተመ": 9095,
      "##ውያንን": 9096,
      "##ልምምድ": 9097,
      "##ግባብ": 9098,
      "##ጠቃለያ": 9099,
      "እንደሚያድግ": 9100,
      "በግማሽ": 9101,
      "በግሪን": 9102,
      "በግምገማ": 9103,
      "በግድቡ": 9104,
      "በግዛቷ": 9105,
      "አለሙ": 9106,
      "አመቷ": 9107,
      "አመጠቀ": 9108,
      "አመታትን": 9109,
      "አመስግ": 9110,
      "ከመም": 9111,
      "ከመደ": 9112,
      "ከመጥ": 9113,
      "ከመጡ": 9114,
      "ከመዘግ": 9115,
      "ከመጋቢት": 9116,
      "ከመድረሱ": 9117,
      "የፊርማ": 9118,
      "የፊላዴ": 9119,
      "የፊልሙ": 9120,
      "የፊንላንድ": 9121,
      "ለአዲስ": 9122,
      "ለአገር": 9123,
      "ለአገልግሎ": 9124,
      "ለአራተኛ": 9125,
      "መሰል": 9126,
      "ቦታውን": 9127,
      "ቫይረሱ": 9128,
      "ቫይታሚን": 9129,
      "ቴክኖሎጂውን": 9130,
      "ቴክኖሎጂዎችን": 9131,
      "ወንበ": 9132,
      "ወቅትም": 9133,
      "ለሚሆኑ": 9134,
      "ለሚገኘው": 9135,
      "ለሚካሄደው": 9136,
      "ለሚፈልጉ": 9137,
      "በታሪካዊ": 9138,
      "በታላቁ": 9139,
      "የበኩ": 9140,
      "የበይነ": 9141,
      "የበዓል": 9142,
      "ገልፆ": 9143,
      "ገለልተኛ": 9144,
      "መልክ": 9145,
      "መልቀቂያ": 9146,
      "መልቀቅ": 9147,
      "ይገኝ": 9148,
      "ይገጥ": 9149,
      "ይገባል": 9150,
      "ይገመታል": 9151,
      "ይገናኛ": 9152,
      "##ታደስ": 9153,
      "ሀገሯ": 9154,
      "ሀገራቸው": 9155,
      "ሀገራቱ": 9156,
      "የብስክሌት": 9157,
      "ፖሊሶች": 9158,
      "##ትስበርግ": 9159,
      "##ንቲን": 9160,
      "##ንቲያጎ": 9161,
      "##ከተል": 9162,
      "##ከተለው": 9163,
      "የአለምአቀፍ": 9164,
      "የዩሮ": 9165,
      "የዩኤ": 9166,
      "የዩንቨርሲቲ": 9167,
      "የዩኒቨርሲቲ": 9168,
      "እንዲያመርቱ": 9169,
      "እንዲያካትት": 9170,
      "ብዙም": 9171,
      "ብዙውን": 9172,
      "ብዙዎቹ": 9173,
      "ብዙሃን": 9174,
      "ብዙኃን": 9175,
      "ከሚለው": 9176,
      "ከሚባል": 9177,
      "ከሚመጡ": 9178,
      "ከሚኖሩ": 9179,
      "ግንኙነታቸውን": 9180,
      "ቫይረስን": 9181,
      "ለተለያዩ": 9182,
      "ለተጨማሪ": 9183,
      "ለተከታታይ": 9184,
      "ለተሰማሩ": 9185,
      "ለተፈጸመው": 9186,
      "ለተመሳሳይ": 9187,
      "በኢኮኖሚ": 9188,
      "በኢስታን": 9189,
      "በኢኖቬሽን": 9190,
      "አርበኞችን": 9191,
      "አርአያ": 9192,
      "የሶፍትዌር": 9193,
      "##ሻሻሉ": 9194,
      "ስምምነትን": 9195,
      "##ኤስሲ": 9196,
      "አስታውቃለች": 9197,
      "ሁለገብ": 9198,
      "ስለማ": 9199,
      "ስለመ": 9200,
      "ስለሺ": 9201,
      "ስለኢትዮጵያ": 9202,
      "ድጋፉ": 9203,
      "አስፈጻሚ": 9204,
      "በሽታውን": 9205,
      "ባንኮችን": 9206,
      "አለምአቀፍ": 9207,
      "አለምፀሃይ": 9208,
      "የሞር": 9209,
      "የሞተ": 9210,
      "የሞተር": 9211,
      "የሞስኮ": 9212,
      "የሞሮኮ": 9213,
      "የጎበኙ": 9214,
      "የጎንደር": 9215,
      "የሀይል": 9216,
      "ግብዣ": 9217,
      "ግብይት": 9218,
      "ግብሩን": 9219,
      "ግብአት": 9220,
      "ፓርቲዎቹ": 9221,
      "##ምንታት": 9222,
      "##ንሰንት": 9223,
      "ለውጦችን": 9224,
      "ሳይዳ": 9225,
      "ሳይደርስ": 9226,
      "በካፍ": 9227,
      "በካንሰር": 9228,
      "በካቡል": 9229,
      "ተመራጭ": 9230,
      "አሜሪካዊው": 9231,
      "##ዳጅነት": 9232,
      "##ላዊቷ": 9233,
      "ሆነች": 9234,
      "ኮሚኒቲ": 9235,
      "የሙሉ": 9236,
      "የኤንቢኤ": 9237,
      "የኤክስፖርት": 9238,
      "##ጠበቅና": 9239,
      "##ቆጣጠረ": 9240,
      "የአውሮፕ": 9241,
      "ማስወ": 9242,
      "ማስገደ": 9243,
      "በከፈቱት": 9244,
      "በከፍታ": 9245,
      "በከፊል": 9246,
      "በዓመ": 9247,
      "በዓይነ": 9248,
      "ዋንጫን": 9249,
      "ዋንጫውን": 9250,
      "ውጤቷ": 9251,
      "ውጤቶች": 9252,
      "ውጤትን": 9253,
      "ይጠብ": 9254,
      "ይጠነክራል": 9255,
      "##ንሲልቬንያ": 9256,
      "የሚያስፈል": 9257,
      "የሚያስፈልጋ": 9258,
      "የሚያስፈልጉ": 9259,
      "ሁሉን": 9260,
      "ህይወትን": 9261,
      "በቀዶ": 9262,
      "በቀጣዮ": 9263,
      "ያልሆኑ": 9264,
      "ያልታወቀ": 9265,
      "ያልታወቁ": 9266,
      "##ቅረጫ": 9267,
      "የተሰደ": 9268,
      "የተሰጣቸው": 9269,
      "ልማትና": 9270,
      "ነገርግን": 9271,
      "የትግርኛ": 9272,
      "የፍቺ": 9273,
      "የፍፃሜ": 9274,
      "የፍተሻ": 9275,
      "የቻይናው": 9276,
      "##ኒያው": 9277,
      "ፕሮግራሞች": 9278,
      "ፕሮግራሞችን": 9279,
      "ያስጠነ": 9280,
      "ያስገኘውን": 9281,
      "ያስቀመ": 9282,
      "የሚገኙት": 9283,
      "መቀበ": 9284,
      "መቀየ": 9285,
      "በህዝብ": 9286,
      "በህይወት": 9287,
      "በህብረተሰብ": 9288,
      "በህብረተሰቡ": 9289,
      "ቤተሰቦች": 9290,
      "ቤተልሄ": 9291,
      "ብሔሮች": 9292,
      "ተመል": 9293,
      "ተመሰረተ": 9294,
      "ተመልካቾች": 9295,
      "የክረም": 9296,
      "የክሪኬት": 9297,
      "የክህሎት": 9298,
      "##ውልድ": 9299,
      "ሲያጠፋ": 9300,
      "ሲያፀድ": 9301,
      "ሲያስተናግድ": 9302,
      "በረሃ": 9303,
      "በዩትዩብ": 9304,
      "ተከበረ": 9305,
      "ተከስቷል": 9306,
      "##ውስቶን": 9307,
      "##ታይን": 9308,
      "##ታይላንድ": 9309,
      "##ታይዜሽን": 9310,
      "##ታይተስ": 9311,
      "መረጃዎችን": 9312,
      "በኩባ": 9313,
      "ወታደሮችን": 9314,
      "ወታደራው": 9315,
      "ድንበ": 9316,
      "ድንቅ": 9317,
      "ድንጋይ": 9318,
      "ግድቡ": 9319,
      "##ፈጥሩ": 9320,
      "በአውደ": 9321,
      "በአውቶቢስ": 9322,
      "በነፃ": 9323,
      "በነዳጅ": 9324,
      "በነሃስ": 9325,
      "በ2012": 9326,
      "በ2017": 9327,
      "በቅርጫት": 9328,
      "ተጠቅ": 9329,
      "ተጠቆመ": 9330,
      "ተጠልፏል": 9331,
      "አሰባ": 9332,
      "አሰፋ": 9333,
      "አሰምተዋል": 9334,
      "ወጣቱ": 9335,
      "ወጣቶችን": 9336,
      "የአካባቢው": 9337,
      "የአካባቢና": 9338,
      "አስተዳደርን": 9339,
      "አስተዳደርና": 9340,
      "በሙዚቃ": 9341,
      "በብሩ": 9342,
      "በብሄራዊ": 9343,
      "በብዝሃ": 9344,
      "በብሪቲ": 9345,
      "በብዙዎች": 9346,
      "ተቀጡ": 9347,
      "ተቀራር": 9348,
      "ተቀይሮ": 9349,
      "ተቀስቅሷል": 9350,
      "ተቀበሉ": 9351,
      "ተቋማዊ": 9352,
      "አድራጎ": 9353,
      "እግርኳስ": 9354,
      "የፀጉር": 9355,
      "ዩኒት": 9356,
      "ዩኒቨርስቲ": 9357,
      "ጥያቄዎችን": 9358,
      "##ወጣታቸው": 9359,
      "የተመሳሳይ": 9360,
      "የተመሠረተ": 9361,
      "ዳርቻዎች": 9362,
      "##ዱስትሪው": 9363,
      "ህዝቡ": 9364,
      "ህዝቡን": 9365,
      "ማራቶ": 9366,
      "ማራኪ": 9367,
      "ሥራውን": 9368,
      "ሥራዎችን": 9369,
      "በትምህርት": 9370,
      "በትክክለ": 9371,
      "በየነ": 9372,
      "በየሁለት": 9373,
      "በየካቲት": 9374,
      "በርካቶች": 9375,
      "ተግባራትን": 9376,
      "ከሰል": 9377,
      "ከሰዋል": 9378,
      "ከሰተብርሃን": 9379,
      "ከ15": 9380,
      "ከ100": 9381,
      "የቱርኩ": 9382,
      "የቱሪስት": 9383,
      "ፌስቲቫሉ": 9384,
      "##ፎርም": 9385,
      "ለማስቆም": 9386,
      "ለማስገባት": 9387,
      "ባለሥልጣኑ": 9388,
      "ኢትዮጵያውያንን": 9389,
      "በባግ": 9390,
      "በባህል": 9391,
      "በባህላዊ": 9392,
      "በኤች": 9393,
      "በኤዥያ": 9394,
      "በኤጀንሲው": 9395,
      "ኃይለማ": 9396,
      "አትሌት": 9397,
      "አትሌቲኮ": 9398,
      "ውይይቱ": 9399,
      "የልደት": 9400,
      "የልጅነት": 9401,
      "የ2012": 9402,
      "የ2013": 9403,
      "##ላለሻ": 9404,
      "##ላክቷል": 9405,
      "##ብኝት": 9406,
      "##ሆናችን": 9407,
      "የተነሳውን": 9408,
      "የተባለቸው": 9409,
      "ልዩነታቸውን": 9410,
      "መድፈር": 9411,
      "ሙሉጌታ": 9412,
      "በጥልቅ": 9413,
      "በጥብቅ": 9414,
      "በኮፕቲክ": 9415,
      "አግደዋል": 9416,
      "ጋዜጠኞች": 9417,
      "የተከሰቱ": 9418,
      "እንዳይጠቀም": 9419,
      "እንዳይጠቁ": 9420,
      "እንዳይዛመት": 9421,
      "153": 9422,
      "መድረኮች": 9423,
      "ሰርታለች": 9424,
      "ሰርቬይ": 9425,
      "ሰርቫን": 9426,
      "በሳንባ": 9427,
      "በድምቀት": 9428,
      "በ18": 9429,
      "በ160": 9430,
      "ተዋናይት": 9431,
      "ተዋናዮች": 9432,
      "ተዋሕዶ": 9433,
      "ኢኮኖሚዋን": 9434,
      "ካርታ": 9435,
      "ካርሎስ": 9436,
      "ካርቦን": 9437,
      "ካርዲናል": 9438,
      "የጥናት": 9439,
      "የጥበብ": 9440,
      "የጥምቀት": 9441,
      "ደንብ": 9442,
      "ደንቦ": 9443,
      "ደንበኞች": 9444,
      "ጉባዔ": 9445,
      "##ራክተሩ": 9446,
      "##ራክሽነ": 9447,
      "##ኤፍኤል": 9448,
      "##ኤፍሪአይ": 9449,
      "ዝግጅታቸውን": 9450,
      "በበአ": 9451,
      "በበይነ": 9452,
      "በሞንት": 9453,
      "ቻይናዊው": 9454,
      "አክሱ": 9455,
      "ከነበሩት": 9456,
      "ከነዚህም": 9457,
      "ዋጋዎችን": 9458,
      "ውሃና": 9459,
      "የሩጫ": 9460,
      "ያሳየ": 9461,
      "ይፋዊ": 9462,
      "ደርሰዋል": 9463,
      "ደረቅ": 9464,
      "##መጣው": 9465,
      "##መጣጠን": 9466,
      "በመተካት": 9467,
      "የኢንሳ": 9468,
      "የኢንፎርሜሽን": 9469,
      "የኢንዶኔዥያ": 9470,
      "አስተዋው": 9471,
      "አስተዋጾ": 9472,
      "መጠነኛ": 9473,
      "ታማኝ": 9474,
      "ችግኝ": 9475,
      "ችግሮችን": 9476,
      "ችግኞችን": 9477,
      "ችግሮቹን": 9478,
      "##ወሰድ": 9479,
      "##ወሰኑ": 9480,
      "##ጋልጥ": 9481,
      "ማዕከልን": 9482,
      "አስፈላጊው": 9483,
      "አስፈላጊነት": 9484,
      "ስብሰባም": 9485,
      "ስብሰባዎች": 9486,
      "ጉባኤውን": 9487,
      "መምጣቱን": 9488,
      "ማክሮን": 9489,
      "ማሻሻል": 9490,
      "በራሱ": 9491,
      "ብቻውን": 9492,
      "አረፈ": 9493,
      "አረብ": 9494,
      "አረፋ": 9495,
      "ኮንቴ": 9496,
      "ኮንፌዴሬሽን": 9497,
      "ኮንፍረንስ": 9498,
      "ውሳኔውን": 9499,
      "የሃይማኖት": 9500,
      "የሃማስ": 9501,
      "የሃገሪቱን": 9502,
      "ድምፃ": 9503,
      "ድምጾች": 9504,
      "ፋብሪካው": 9505,
      "ፋብሪካዎችን": 9506,
      "##ትሮሎጂ": 9507,
      "##ዳርግ": 9508,
      "##ገልገል": 9509,
      "ሻምፒዮኖቹ": 9510,
      "መጨረስ": 9511,
      "መጨናነቅ": 9512,
      "መኖራቸውን": 9513,
      "ምንዛሬ": 9514,
      "ምንጣፍ": 9515,
      "ስነጥበብ": 9516,
      "በወንድ": 9517,
      "በወጣት": 9518,
      "በወንዙ": 9519,
      "በወረርሽኙ": 9520,
      "ቡድኑን": 9521,
      "ቡድናቸው": 9522,
      "ባህረ": 9523,
      "ባህሪ": 9524,
      "ተሸንፏል": 9525,
      "ትኩሳት": 9526,
      "ከማስ": 9527,
      "ከማራቶን": 9528,
      "የሳንባ": 9529,
      "የሳዑዲ": 9530,
      "የሳፋሪኮም": 9531,
      "ጉዞዎች": 9532,
      "ጉዞወች": 9533,
      "##ሰበው": 9534,
      "##ሰበሰብ": 9535,
      "##ሰበሰቡ": 9536,
      "##ደራጀ": 9537,
      "##ብራቶሪ": 9538,
      "##ኪናዋ": 9539,
      "እንግዶችን": 9540,
      "እንግዲህ": 9541,
      "የተቀደሰ": 9542,
      "የተቀመጡ": 9543,
      "የመንግስትን": 9544,
      "##ጀመረበት": 9545,
      "##በረታታ": 9546,
      "አሸናፊዎቹ": 9547,
      "104": 9548,
      "ሙከራዎች": 9549,
      "ሙከራዎችን": 9550,
      "ማንቂያ": 9551,
      "ማንቸስተር": 9552,
      "ማንኛውም": 9553,
      "ሱዳንን": 9554,
      "በ26": 9555,
      "በሶማሊያ": 9556,
      "ተደርጎ": 9557,
      "ትራንስፎርሜሽን": 9558,
      "ዘግይቶ": 9559,
      "የ1500": 9560,
      "የ11ኛ": 9561,
      "ጥቅል": 9562,
      "ጥቅምት": 9563,
      "##ካርታ": 9564,
      "##ረዳው": 9565,
      "##ረቡትን": 9566,
      "##ከናወኑ": 9567,
      "##ፐብሊካን": 9568,
      "##ስተናጋጅነት": 9569,
      "ድርጅትን": 9570,
      "2024": 9571,
      "ሻምፒዮናው": 9572,
      "12ኛ": 9573,
      "2000": 9574,
      "2009": 9575,
      "ስኬቶችን": 9576,
      "ስኬቲንግ": 9577,
      "በውጪ": 9578,
      "በውድድሩ": 9579,
      "በጎበኙ": 9580,
      "በደብረ": 9581,
      "በደማቅ": 9582,
      "በዋሽንግተን": 9583,
      "በሜጀር": 9584,
      "በሜዳው": 9585,
      "በጋንዲ": 9586,
      "በጋሎን": 9587,
      "በሃርቫርድ": 9588,
      "ተሳትፌያ": 9589,
      "ቴሌቭዥን": 9590,
      "የቆዩ": 9591,
      "የቆሻሻ": 9592,
      "የቆየውን": 9593,
      "የቤዝቦል": 9594,
      "ገቢው": 9595,
      "ገቢን": 9596,
      "##ረቃው": 9597,
      "##ነባበረ": 9598,
      "የተመረተ": 9599,
      "የተመረጡ": 9600,
      "የተመረቀው": 9601,
      "አስመዝግባለች": 9602,
      "በተመለከት": 9603,
      "ለመቀየር": 9604,
      "ለመቀጠል": 9605,
      "የማይዳ": 9606,
      "የእግርኳስ": 9607,
      "ያልተረጋገጡ": 9608,
      "ያልተጠበቁ": 9609,
      "ወጣቶችና": 9610,
      "110": 9611,
      "መውደ": 9612,
      "መውጫ": 9613,
      "መውሰድ": 9614,
      "መውደቅ": 9615,
      "ምስክር": 9616,
      "ምስጋና": 9617,
      "በቴሌ": 9618,
      "በቴኒስ": 9619,
      "በቴታነስ": 9620,
      "ቢሮዎች": 9621,
      "ባልሆነ": 9622,
      "ትንኝ": 9623,
      "ትንሹ": 9624,
      "ትንበያ": 9625,
      "አጋማሽ": 9626,
      "አዘጋጁ": 9627,
      "አዘጋጆቹ": 9628,
      "ኤንኤፍኤል": 9629,
      "ዘርፉ": 9630,
      "የደቡባዊ": 9631,
      "የናፍጣ": 9632,
      "የኩርድ": 9633,
      "የኬንያ": 9634,
      "የሕንድ": 9635,
      "የሕክምና": 9636,
      "ዲዛይኖ": 9637,
      "ገደብ": 9638,
      "##ምብሪጅ": 9639,
      "##ዘግየት": 9640,
      "##ተግበር": 9641,
      "በማስገባት": 9642,
      "በማስቆጠር": 9643,
      "የእስራኤልን": 9644,
      "##ረጋግጥ": 9645,
      "አሸንፈዋል": 9646,
      "ሽልማቱ": 9647,
      "ሽልማቶች": 9648,
      "መመስረት": 9649,
      "ቀጥሎ": 9650,
      "ተሳፋሪዎችን": 9651,
      "ታጣቂ": 9652,
      "አፍሮ": 9653,
      "አፍንጫ": 9654,
      "አፍጋኒስታን": 9655,
      "ከስምም": 9656,
      "ከስልጣናቸው": 9657,
      "ክርስትያናት": 9658,
      "ዘመቻን": 9659,
      "የዕዳ": 9660,
      "የዕለት": 9661,
      "የዕድሜ": 9662,
      "የዕድገት": 9663,
      "ጉብኝታቸው": 9664,
      "##ፈፀሙ": 9665,
      "##ፈፀሙት": 9666,
      "##ኖርዌይ": 9667,
      "የማህበረሰብ": 9668,
      "የማዕከላዊ": 9669,
      "በምትባል": 9670,
      "በምትገኝ": 9671,
      "እየተደረገበት": 9672,
      "በታችኛው": 9673,
      "በረራዎቹን": 9674,
      "145": 9675,
      "ሕግን": 9676,
      "መደብሮቻቸው": 9677,
      "መቶኛ": 9678,
      "መሠረተ": 9679,
      "መሠረታዊ": 9680,
      "ሰጥቷል": 9681,
      "ሰጥተው": 9682,
      "በሴኔ": 9683,
      "በፊርማ": 9684,
      "ተሰና": 9685,
      "ተሰደዋል": 9686,
      "ተመርቋል": 9687,
      "ትብብርን": 9688,
      "ነገሮችን": 9689,
      "ኒውዮርክ": 9690,
      "ኒውክለር": 9691,
      "አፈና": 9692,
      "አላገኘም": 9693,
      "ኤልቪስ": 9694,
      "ኤክስፖርት": 9695,
      "ኤክስቼንጅ": 9696,
      "ከኢን": 9697,
      "ዘውግ": 9698,
      "የዴልሂ": 9699,
      "የዴሞክራሲ": 9700,
      "የዴንጊ": 9701,
      "የዘንድሮው": 9702,
      "ጀርሲ": 9703,
      "ገበያዎችን": 9704,
      "ፍራንክ": 9705,
      "##ፈጸም": 9706,
      "##ግሪኔት": 9707,
      "የሚተላለፉ": 9708,
      "የሚተገበር": 9709,
      "አስርተ": 9710,
      "በተባለው": 9711,
      "የሰውነት": 9712,
      "ፕሮጀክቶች": 9713,
      "ፕሮጀክቶችን": 9714,
      "ግድያዎችን": 9715,
      "ለምነት": 9716,
      "ለምዕራ": 9717,
      "ለምሳሌ": 9718,
      "መሞታቸው": 9719,
      "መሸር": 9720,
      "መሸሽ": 9721,
      "መሆናቸው": 9722,
      "ስታሸንፍ": 9723,
      "ስታዲየም": 9724,
      "አወጡ": 9725,
      "አወጁ": 9726,
      "ኢትዮጲ": 9727,
      "ኦርኬስትራ": 9728,
      "ከውድድር": 9729,
      "ከታችኛው": 9730,
      "ከታቀደው": 9731,
      "ከዩኤስ": 9732,
      "ከዩናይትድ": 9733,
      "ከዩኒሴፍ": 9734,
      "ከሆነው": 9735,
      "የጋምቤላ": 9736,
      "የድሬዳዋ": 9737,
      "የከፋ": 9738,
      "የከፍተኛ": 9739,
      "የከባድ": 9740,
      "የከፈቱት": 9741,
      "የጉበት": 9742,
      "የጉግል": 9743,
      "የጉዳይ": 9744,
      "የድርሻ": 9745,
      "የድርቅ": 9746,
      "የድርጅት": 9747,
      "የቅርስ": 9748,
      "ግብርን": 9749,
      "ጥቃቱ": 9750,
      "ጥቃቶችን": 9751,
      "ፊልሙ": 9752,
      "##ጫወት": 9753,
      "##ጫወተው": 9754,
      "የሚገነባ": 9755,
      "የአልባ": 9756,
      "በመካከላ": 9757,
      "በመካከለኛ": 9758,
      "በመቃወሙ": 9759,
      "##ርትራው": 9760,
      "የግብርናውን": 9761,
      "እያደረገች": 9762,
      "ሳይንስና": 9763,
      "መተግበር": 9764,
      "ማሳያ": 9765,
      "ማሳየት": 9766,
      "ማሳካት": 9767,
      "ማይክ": 9768,
      "ማይክሮሶ": 9769,
      "ማቀዳቸውን": 9770,
      "ሰፊውን": 9771,
      "ሽብርተኛ": 9772,
      "ሽብርተኝነት": 9773,
      "ቁርጥ": 9774,
      "ቆይታም": 9775,
      "በዝግጅት": 9776,
      "ብራዚ": 9777,
      "ተነግሯል": 9778,
      "አጥቂ": 9779,
      "ኤፍቢአይ": 9780,
      "የራስ": 9781,
      "የራሱን": 9782,
      "የንብረት": 9783,
      "የንፅህና": 9784,
      "የዳላስ": 9785,
      "የፓርቲ": 9786,
      "የቢሮው": 9787,
      "የሰብዓዊ": 9788,
      "ያቀፈው": 9789,
      "ዲፕሎማቶችን": 9790,
      "ጥናቶች": 9791,
      "ጥናቱን": 9792,
      "ጳጳሳትን": 9793,
      "##መስረት": 9794,
      "##ግዳድ": 9795,
      "##ግዚአብ": 9796,
      "##ባብዌ": 9797,
      "የተጠረጠ": 9798,
      "በመምረጥ": 9799,
      "የወጣው": 9800,
      "የወጣውን": 9801,
      "የወጣቶችን": 9802,
      "ሳምንቱ": 9803,
      "አቅራቢው": 9804,
      "አቅራቢዎች": 9805,
      "##ልስጤማውያን": 9806,
      "##ሌክትሮኒክ": 9807,
      "ደረሰባቸው": 9808,
      "ታማሚዎችን": 9809,
      "የሴቶችና": 9810,
      "ለወባ": 9811,
      "ምህዋር": 9812,
      "ሰራተኛ": 9813,
      "በዲጂታል": 9814,
      "በጉግል": 9815,
      "በጉጉት": 9816,
      "በቻይናው": 9817,
      "ተንሸራ": 9818,
      "ተኩል": 9819,
      "ተመረቀ": 9820,
      "ክሪስ": 9821,
      "ክሪኬት": 9822,
      "ክሪስቲን": 9823,
      "ወስዷል": 9824,
      "ዕድልን": 9825,
      "ዕድገት": 9826,
      "ዕድገትን": 9827,
      "የለንም": 9828,
      "የቦንድ": 9829,
      "የሆንግ": 9830,
      "የፋሽን": 9831,
      "ጀመረች": 9832,
      "ግልጋሎት": 9833,
      "##ፈለገ": 9834,
      "እስራኤ": 9835,
      "የምታደርገውን": 9836,
      "ስርዓትን": 9837,
      "ስርዓቱን": 9838,
      "አልበሙ": 9839,
      "በግንባር": 9840,
      "የበሽተኞች": 9841,
      "ገልፀው": 9842,
      "የብሪቲ": 9843,
      "##ኤስኤአይዲ": 9844,
      "የቴሌቪዥን": 9845,
      "የቴሌኮሙኒኬሽን": 9846,
      "አውሮፕላኑን": 9847,
      "ማህበራዊና": 9848,
      "ሜዳሊያዎችን": 9849,
      "አውራጃዎች": 9850,
      "ሀብታም": 9851,
      "ለቀቀ": 9852,
      "ለቀቁ": 9853,
      "ለቀድሞው": 9854,
      "ለእጅ": 9855,
      "መገኘት": 9856,
      "መገኘታቸውን": 9857,
      "ማርታ": 9858,
      "በርሄ": 9859,
      "በርሊን": 9860,
      "በዴሞክራቲክ": 9861,
      "በዴልሂ": 9862,
      "በሲንጋ": 9863,
      "በቦሌ": 9864,
      "በቦረና": 9865,
      "በሕገ": 9866,
      "በሕንድ": 9867,
      "በሕክምና": 9868,
      "በሕይወት": 9869,
      "በክልሉ": 9870,
      "በክልሎች": 9871,
      "ተካተዋል": 9872,
      "ተካሂዷል": 9873,
      "ቱሪስቶችን": 9874,
      "ቱሪዝምን": 9875,
      "ታስረው": 9876,
      "ትእይንት": 9877,
      "አራቱ": 9878,
      "አዘዘ": 9879,
      "አዘዋዋ": 9880,
      "እነዚህም": 9881,
      "ከቀጠ": 9882,
      "ኬሚካልና": 9883,
      "የጣለው": 9884,
      "የጨዋታ": 9885,
      "የጨረቃ": 9886,
      "የጨርቃ": 9887,
      "የቅጂ": 9888,
      "የቅባት": 9889,
      "የሪፎርም": 9890,
      "የሪፐብሊካን": 9891,
      "የጭስ": 9892,
      "የጭነት": 9893,
      "የጭንቅላት": 9894,
      "ይኖራል": 9895,
      "ይኖረዋል": 9896,
      "ይኖራሉ": 9897,
      "ጆርዳን": 9898,
      "ገብረማርያም": 9899,
      "ጥንታዊ": 9900,
      "ፕሪምየር": 9901,
      "##ልተኝነት": 9902,
      "##ሰጠውን": 9903,
      "##ታችንን": 9904,
      "##ሜትሪ": 9905,
      "##ከፈተ": 9906,
      "በመዲናይቱ": 9907,
      "እንደምትሰጥ": 9908,
      "እንደምትወስድ": 9909,
      "በተነሳበት": 9910,
      "ባለመስማማ": 9911,
      "ተገናኝ": 9912,
      "ተገናኝተው": 9913,
      "መርከብን": 9914,
      "የቀረበችው": 9915,
      "ማዕቀፉ": 9916,
      "አርብቶ": 9917,
      "አህጉር": 9918,
      "አህጉራት": 9919,
      "##ቀርብም": 9920,
      "##ከታተሉ": 9921,
      "በዋናነት": 9922,
      "ሀይሎች": 9923,
      "ህዋስ": 9924,
      "መዋቅር": 9925,
      "መሃላ": 9926,
      "መሐመድ": 9927,
      "ሰነዱ": 9928,
      "በቤጂንግ": 9929,
      "በፀጥታ": 9930,
      "በፀጥታው": 9931,
      "ትውልደ": 9932,
      "ነጋሽ": 9933,
      "አሌፖ": 9934,
      "አጠናቀዋል": 9935,
      "ኦክላሆማ": 9936,
      "ኬንያዊ": 9937,
      "ወንድማማ": 9938,
      "ዕቃዎች": 9939,
      "ዕቃዎችን": 9940,
      "የዝርያ": 9941,
      "የሮማ": 9942,
      "የሮጠች": 9943,
      "የሲኒማ": 9944,
      "የጃማይካ": 9945,
      "የድንጋይ": 9946,
      "ደራርቱ": 9947,
      "ጂኦሎጂካል": 9948,
      "ግራም": 9949,
      "ግብረሰዶ": 9950,
      "ጎልደን": 9951,
      "##ዳደሩ": 9952,
      "##ማስቆ": 9953,
      "የተራራ": 9954,
      "የተራቆቱ": 9955,
      "አስገድዷል": 9956,
      "በመግደል": 9957,
      "ባለመቻላቸው": 9958,
      "##ታወቀውን": 9959,
      "እስረኞችን": 9960,
      "መስፋፋ": 9961,
      "አለመግባባት": 9962,
      "ወንጀሎችን": 9963,
      "ኮሚሽነሩ": 9964,
      "የተመዘገበውን": 9965,
      "የተመሰረተ": 9966,
      "ዲዛይነር": 9967,
      "እንድትሆን": 9968,
      "ተሳታፊዎች": 9969,
      "መተግበሪያው": 9970,
      "ሽያጭን": 9971,
      "አስጠንቅቀዋል": 9972,
      "ለፍርድ": 9973,
      "ለሕይወት": 9974,
      "ልጃቸውን": 9975,
      "መኪናዎች": 9976,
      "ሪፖርቱ": 9977,
      "ሪፖርቶች": 9978,
      "ሪፖርተር": 9979,
      "ሰብአዊ": 9980,
      "ሰብዓዊ": 9981,
      "ሰራተኞቹን": 9982,
      "ሲቪል": 9983,
      "ሶሪያን": 9984,
      "በኬፕ": 9985,
      "በኬሚካል": 9986,
      "በ63": 9987,
      "በ81": 9988,
      "ብልጫ": 9989,
      "ትግስት": 9990,
      "ትግበራ": 9991,
      "ነሐስ": 9992,
      "አሻሽላለች": 9993,
      "አቋቁ": 9994,
      "አከባቢዎች": 9995,
      "አሳይተዋል": 9996,
      "አሳይቷል": 9997,
      "ከግምት": 9998,
      "ከጠየ": 9999,
      "ከህንድ": 10000,
      "ከ2017": 10001,
      "ከ2016": 10002,
      "ካፒቴን": 10003,
      "ኬሚካሎች": 10004,
      "ክስተቱ": 10005,
      "ኮንትራ": 10006,
      "ኮንትሮባንድ": 10007,
      "ኮንትራክሽነ": 10008,
      "ወልደ": 10009,
      "ውህደ": 10010,
      "የፈሰሰ": 10011,
      "የፈጠሩትን": 10012,
      "የላሊበ": 10013,
      "የላብራቶሪ": 10014,
      "የረጅም": 10015,
      "የሱዳን": 10016,
      "የሱናሚ": 10017,
      "የዓሣ": 10018,
      "የዓረብ": 10019,
      "የቬትናም": 10020,
      "የክትትል": 10021,
      "ዩንቨርስቲ": 10022,
      "ያማከለ": 10023,
      "ያማከሉ": 10024,
      "ጀልባን": 10025,
      "ጎብኝዎችን": 10026,
      "ጎብኝተዋል": 10027,
      "ፈቃዱ": 10028,
      "ፈተናዎች": 10029,
      "##ንደቅ": 10030,
      "##ንዱዎች": 10031,
      "##ቀመጥ": 10032,
      "የሚመራው": 10033,
      "የሚረዳውን": 10034,
      "የሚረዳቸው": 10035,
      "የተበከለ": 10036,
      "የተበተኑ": 10037,
      "የተወለደ": 10038,
      "በመቅረጽ": 10039,
      "በመቅረፅ": 10040,
      "በተቃዋሚዎች": 10041,
[...]
